{
  "version": "1.0",
  "truncation": null,
  "padding": null,
  "added_tokens": [
    {
      "id": 0,
      "content": "<PAD>",
      "single_word": false,
      "lstrip": false,
      "rstrip": false,
      "normalized": false,
      "special": true
    },
    {
      "id": 1,
      "content": "<UNK>",
      "single_word": false,
      "lstrip": false,
      "rstrip": false,
      "normalized": false,
      "special": true
    },
    {
      "id": 2,
      "content": "<CLS>",
      "single_word": false,
      "lstrip": false,
      "rstrip": false,
      "normalized": false,
      "special": true
    }
  ],
  "normalizer": null,
  "pre_tokenizer": {
    "type": "Whitespace"
  },
  "post_processor": null,
  "decoder": null,
  "model": {
    "type": "BPE",
    "dropout": null,
    "unk_token": "<UNK>",
    "continuing_subword_prefix": null,
    "end_of_word_suffix": null,
    "fuse_unk": false,
    "byte_fallback": false,
    "vocab": {
      "<PAD>": 0,
      "<UNK>": 1,
      "<CLS>": 2,
      "!": 3,
      "\"": 4,
      "#": 5,
      "$": 6,
      "%": 7,
      "&": 8,
      "'": 9,
      "(": 10,
      ")": 11,
      "*": 12,
      "+": 13,
      ",": 14,
      "-": 15,
      ".": 16,
      "/": 17,
      "0": 18,
      "1": 19,
      "2": 20,
      "3": 21,
      "4": 22,
      "5": 23,
      "6": 24,
      "7": 25,
      "8": 26,
      "9": 27,
      ":": 28,
      ";": 29,
      "=": 30,
      "?": 31,
      "@": 32,
      "[": 33,
      "\\": 34,
      "]": 35,
      "^": 36,
      "_": 37,
      "`": 38,
      "a": 39,
      "b": 40,
      "c": 41,
      "d": 42,
      "e": 43,
      "f": 44,
      "g": 45,
      "h": 46,
      "i": 47,
      "j": 48,
      "k": 49,
      "l": 50,
      "m": 51,
      "n": 52,
      "o": 53,
      "p": 54,
      "q": 55,
      "r": 56,
      "s": 57,
      "t": 58,
      "u": 59,
      "v": 60,
      "w": 61,
      "x": 62,
      "y": 63,
      "z": 64,
      "{": 65,
      "|": 66,
      "}": 67,
      "~": 68,
      "th": 69,
      "the": 70,
      "in": 71,
      "re": 72,
      "an": 73,
      "er": 74,
      "ou": 75,
      "as": 76,
      "at": 77,
      "on": 78,
      "to": 79,
      "and": 80,
      "en": 81,
      "it": 82,
      "or": 83,
      "ed": 84,
      "al": 85,
      "is": 86,
      "ing": 87,
      "st": 88,
      "es": 89,
      "ic": 90,
      "ar": 91,
      "me": 92,
      "was": 93,
      "we": 94,
      "le": 95,
      "of": 96,
      "ly": 97,
      "oo": 98,
      "be": 99,
      "ve": 100,
      "ch": 101,
      "ha": 102,
      "ot": 103,
      "ac": 104,
      "se": 105,
      "for": 106,
      "ver": 107,
      "bu": 108,
      "wh": 109,
      "so": 110,
      "ll": 111,
      "de": 112,
      "ay": 113,
      "wi": 114,
      "ri": 115,
      "he": 116,
      "you": 117,
      "ood": 118,
      "that": 119,
      "ti": 120,
      "ow": 121,
      "..": 122,
      "my": 123,
      "gh": 124,
      "ge": 125,
      "pl": 126,
      "ke": 127,
      "but": 128,
      "ld": 129,
      "ro": 130,
      "co": 131,
      "with": 132,
      "li": 133,
      "ab": 134,
      "they": 135,
      "this": 136,
      "out": 137,
      "not": 138,
      "ad": 139,
      "are": 140,
      "ent": 141,
      "ice": 142,
      "us": 143,
      "ir": 144,
      "all": 145,
      "id": 146,
      "ce": 147,
      "un": 148,
      "one": 149,
      "pe": 150,
      "have": 151,
      "fe": 152,
      "ne": 153,
      "mo": 154,
      ".\\": 155,
      "had": 156,
      "au": 157,
      "am": 158,
      "were": 159,
      "ould": 160,
      "ter": 161,
      "ser": 162,
      "our": 163,
      "lo": 164,
      "ally": 165,
      "ast": 166,
      "very": 167,
      "end": 168,
      "ant": 169,
      "ex": 170,
      "plac": 171,
      "up": 172,
      "ght": 173,
      "sh": 174,
      "if": 175,
      "food": 176,
      "go": 177,
      "ust": 178,
      "good": 179,
      "there": 180,
      "ion": 181,
      "no": 182,
      "place": 183,
      "ap": 184,
      "ther": 185,
      "get": 186,
      "com": 187,
      "thing": 188,
      "\\\"": 189,
      "op": 190,
      "ma": 191,
      "do": 192,
      "si": 193,
      "ack": 194,
      "red": 195,
      "some": 196,
      "gre": 197,
      "serv": 198,
      "like": 199,
      "su": 200,
      "here": 201,
      "just": 202,
      "tr": 203,
      "ked": 204,
      "per": 205,
      "te": 206,
      "af": 207,
      "qu": 208,
      "fri": 209,
      "ni": 210,
      "ate": 211,
      "ite": 212,
      "sp": 213,
      "any": 214,
      "ty": 215,
      "way": 216,
      "sa": 217,
      "ich": 218,
      "would": 219,
      "ur": 220,
      "oun": 221,
      "ain": 222,
      "ess": 223,
      "el": 224,
      "pre": 225,
      "der": 226,
      "rom": 227,
      "did": 228,
      "che": 229,
      "time": 230,
      "other": 231,
      "king": 232,
      "ag": 233,
      "when": 234,
      "ven": 235,
      "can": 236,
      "po": 237,
      "ho": 238,
      "pr": 239,
      "ie": 240,
      "fin": 241,
      "service": 242,
      "con": 243,
      "great": 244,
      "wa": 245,
      "ul": 246,
      "...": 247,
      "ick": 248,
      "from": 249,
      "day": 250,
      "wor": 251,
      "ut": 252,
      "ink": 253,
      "av": 254,
      "their": 255,
      "too": 256,
      "back": 257,
      "able": 258,
      "tion": 259,
      "il": 260,
      "wait": 261,
      "about": 262,
      "what": 263,
      "ation": 264,
      "ca": 265,
      "ough": 266,
      "now": 267,
      "ill": 268,
      "ous": 269,
      "ta": 270,
      "ish": 271,
      "ck": 272,
      "ers": 273,
      "really": 274,
      "hi": 275,
      "over": 276,
      "dr": 277,
      "own": 278,
      "art": 279,
      "min": 280,
      "she": 281,
      "rest": 282,
      "!!": 283,
      "which": 284,
      "ct": 285,
      "friend": 286,
      "don": 287,
      "your": 288,
      "pro": 289,
      "by": 290,
      "ard": 291,
      "cr": 292,
      "more": 293,
      "will": 294,
      "got": 295,
      "cau": 296,
      "et": 297,
      "only": 298,
      "been": 299,
      "see": 300,
      "cause": 301,
      "bo": 302,
      "ound": 303,
      "even": 304,
      "roo": 305,
      "loo": 306,
      "every": 307,
      "because": 308,
      "gr": 309,
      "sal": 310,
      "room": 311,
      "gi": 312,
      "off": 313,
      "after": 314,
      "them": 315,
      "ple": 316,
      "fre": 317,
      "pp": 318,
      "ss": 319,
      "than": 320,
      "itt": 321,
      "int": 322,
      "ine": 323,
      "lu": 324,
      "want": 325,
      "order": 326,
      "nthe": 327,
      "rant": 328,
      "could": 329,
      "ak": 330,
      "tast": 331,
      "um": 332,
      "br": 333,
      "ong": 334,
      "restau": 335,
      "im": 336,
      "restaurant": 337,
      "also": 338,
      "nice": 339,
      "men": 340,
      "gu": 341,
      "ye": 342,
      "fo": 343,
      "ci": 344,
      "didn": 345,
      "side": 346,
      "try": 347,
      "fl": 348,
      "ble": 349,
      "dis": 350,
      "ars": 351,
      "has": 352,
      "sto": 353,
      "who": 354,
      "eat": 355,
      "bet": 356,
      "mu": 357,
      "jo": 358,
      "act": 359,
      "dered": 360,
      "well": 361,
      "00": 362,
      "iz": 363,
      "know": 364,
      "ordered": 365,
      "ste": 366,
      "bur": 367,
      "ful": 368,
      "ious": 369,
      "dec": 370,
      "man": 371,
      "then": 372,
      "par": 373,
      "ment": 374,
      "tw": 375,
      "came": 376,
      "read": 377,
      "hot": 378,
      "ig": 379,
      "avor": 380,
      "fir": 381,
      "ts": 382,
      "much": 383,
      "des": 384,
      "pret": 385,
      "drink": 386,
      "ople": 387,
      "people": 388,
      "ity": 389,
      "ind": 390,
      "ile": 391,
      "sin": 392,
      "whe": 393,
      "ated": 394,
      "vie": 395,
      "went": 396,
      "bar": 397,
      "ittle": 398,
      "veg": 399,
      "ien": 400,
      "little": 401,
      "first": 402,
      "never": 403,
      "most": 404,
      "say": 405,
      "loc": 406,
      "tom": 407,
      "por": 408,
      "med": 409,
      "ese": 410,
      "night": 411,
      "bl": 412,
      "pretty": 413,
      "aw": 414,
      "down": 415,
      "point": 416,
      "coo": 417,
      "age": 418,
      "cre": 419,
      "where": 420,
      "her": 421,
      "again": 422,
      "aff": 423,
      "better": 424,
      "ved": 425,
      "spe": 426,
      "din": 427,
      "come": 428,
      "table": 429,
      "ass": 430,
      "ist": 431,
      "lic": 432,
      "view": 433,
      "best": 434,
      "ways": 435,
      "need": 436,
      "sm": 437,
      "said": 438,
      "exper": 439,
      "chick": 440,
      "love": 441,
      "fore": 442,
      "how": 443,
      "ren": 444,
      "az": 445,
      "chicken": 446,
      "experien": 447,
      "lot": 448,
      "staff": 449,
      "mon": 450,
      "going": 451,
      "right": 452,
      "new": 453,
      "call": 454,
      "mes": 455,
      "two": 456,
      "car": 457,
      "menu": 458,
      "ry": 459,
      "make": 460,
      "think": 461,
      "though": 462,
      "made": 463,
      "ater": 464,
      "mp": 465,
      "ger": 466,
      "wal": 467,
      "ok": 468,
      "tri": 469,
      "ought": 470,
      "les": 471,
      "ks": 472,
      "always": 473,
      "bad": 474,
      "unch": 475,
      "oup": 476,
      "vegas": 477,
      "take": 478,
      "fi": 479,
      "cus": 480,
      "pric": 481,
      "ving": 482,
      "its": 483,
      "cle": 484,
      "before": 485,
      "ually": 486,
      "air": 487,
      "ure": 488,
      "ber": 489,
      "ner": 490,
      "utes": 491,
      ").": 492,
      "ave": 493,
      "minutes": 494,
      "bit": 495,
      "experience": 496,
      "still": 497,
      "hour": 498,
      "fr": 499,
      "while": 500,
      "ach": 501,
      "tur": 502,
      "ip": 503,
      "sel": 504,
      "times": 505,
      "ting": 506,
      "may": 507,
      "sau": 508,
      "price": 509,
      "ms": 510,
      "around": 511,
      "review": 512,
      "wasn": 513,
      "ever": 514,
      "sure": 515,
      "cheese": 516,
      "vis": 517,
      "cas": 518,
      "happ": 519,
      "izz": 520,
      "ction": 521,
      "mi": 522,
      "pizz": 523,
      "few": 524,
      "....": 525,
      "friendly": 526,
      "long": 527,
      "ian": 528,
      "less": 529,
      "defin": 530,
      "ress": 531,
      "sup": 532,
      "since": 533,
      "let": 534,
      "meal": 535,
      "give": 536,
      "flavor": 537,
      "another": 538,
      "custom": 539,
      "comm": 540,
      "est": 541,
      "told": 542,
      "asked": 543,
      "itely": 544,
      "salad": 545,
      "xt": 546,
      "cho": 547,
      "ason": 548,
      "u00": 549,
      "appoint": 550,
      "ten": 551,
      "small": 552,
      "took": 553,
      "na": 554,
      "definitely": 555,
      "clo": 556,
      "show": 557,
      "son": 558,
      "wee": 559,
      "something": 560,
      "bre": 561,
      "pizza": 562,
      "next": 563,
      "being": 564,
      "find": 565,
      "turn": 566,
      "should": 567,
      "dish": 568,
      "fast": 569,
      "mar": 570,
      "won": 571,
      "sauce": 572,
      "big": 573,
      "high": 574,
      "kes": 575,
      "wr": 576,
      "pect": 577,
      "location": 578,
      "work": 579,
      "stand": 580,
      "fresh": 581,
      "stay": 582,
      "into": 583,
      "last": 584,
      "cial": 585,
      "gl": 586,
      "10": 587,
      "his": 588,
      "feel": 589,
      "clu": 590,
      "ru": 591,
      "lunch": 592,
      "server": 593,
      "joy": 594,
      "ff": 595,
      "ings": 596,
      "rent": 597,
      "du": 598,
      "dif": 599,
      "hotel": 600,
      "self": 601,
      "light": 602,
      "expect": 603,
      "delic": 604,
      "ance": 605,
      "io": 606,
      "enjoy": 607,
      "commend": 608,
      "check": 609,
      "recommend": 610,
      "drinks": 611,
      "tre": 612,
      "sand": 613,
      "nothing": 614,
      "char": 615,
      "meat": 616,
      "many": 617,
      "!\\": 618,
      "hel": 619,
      "cor": 620,
      "delicious": 621,
      "part": 622,
      "clean": 623,
      "burger": 624,
      "everything": 625,
      "sat": 626,
      "area": 627,
      "ep": 628,
      "pay": 629,
      "line": 630,
      "special": 631,
      "ato": 632,
      "fu": 633,
      "tow": 634,
      "ies": 635,
      "ans": 636,
      "help": 637,
      "gg": 638,
      "wich": 639,
      "mus": 640,
      "ably": 641,
      "does": 642,
      "wanted": 643,
      "sandwich": 644,
      "home": 645,
      "dinner": 646,
      "amaz": 647,
      "ily": 648,
      "la": 649,
      "visit": 650,
      "store": 651,
      "disappoint": 652,
      "--": 653,
      "open": 654,
      "ang": 655,
      "offe": 656,
      "kind": 657,
      "ating": 658,
      "stars": 659,
      "star": 660,
      "pt": 661,
      "thr": 662,
      "start": 663,
      "fun": 664,
      "exce": 665,
      "worth": 666,
      "under": 667,
      "amazing": 668,
      "ft": 669,
      "add": 670,
      "diffe": 671,
      "u00e": 672,
      "lt": 673,
      "week": 674,
      "same": 675,
      "ive": 676,
      "bas": 677,
      "looking": 678,
      "person": 679,
      "ality": 680,
      "else": 681,
      "sy": 682,
      "old": 683,
      "free": 684,
      "rip": 685,
      "roll": 686,
      "mis": 687,
      "both": 688,
      "tried": 689,
      "comp": 690,
      "guy": 691,
      "taste": 692,
      "enough": 693,
      "plain": 694,
      "appe": 695,
      "hu": 696,
      "late": 697,
      "steak": 698,
      "low": 699,
      "tal": 700,
      "used": 701,
      "stu": 702,
      "hone": 703,
      "reason": 704,
      "coun": 705,
      "cu": 706,
      "swe": 707,
      "howe": 708,
      "however": 709,
      "why": 710,
      "bread": 711,
      "break": 712,
      "pic": 713,
      "ome": 714,
      "put": 715,
      "away": 716,
      "ra": 717,
      "ort": 718,
      "left": 719,
      "20": 720,
      "ef": 721,
      "ided": 722,
      "happy": 723,
      "thought": 724,
      "top": 725,
      "sur": 726,
      "things": 727,
      "gar": 728,
      "fries": 729,
      "prices": 730,
      "sus": 731,
      "ning": 732,
      "sit": 733,
      "different": 734,
      "pot": 735,
      "shop": 736,
      "ba": 737,
      "past": 738,
      "prob": 739,
      "tions": 740,
      "cent": 741,
      "),": 742,
      "him": 743,
      "maybe": 744,
      "actually": 745,
      "customer": 746,
      "ular": 747,
      "sele": 748,
      "hal": 749,
      "perfe": 750,
      "lar": 751,
      "quality": 752,
      "probably": 753,
      "water": 754,
      "atch": 755,
      "tell": 756,
      "rible": 757,
      "sive": 758,
      "sha": 759,
      "super": 760,
      "manag": 761,
      "favor": 762,
      "ouse": 763,
      "hand": 764,
      "boo": 765,
      "anything": 766,
      "town": 767,
      "ise": 768,
      "ange": 769,
      "through": 770,
      "nwe": 771,
      "door": 772,
      "30": 773,
      "friends": 774,
      "ree": 775,
      "ffe": 776,
      "dri": 777,
      "fill": 778,
      "look": 779,
      "house": 780,
      "cour": 781,
      "sweet": 782,
      "os": 783,
      "cl": 784,
      "once": 785,
      "waitress": 786,
      "sc": 787,
      "sushi": 788,
      "ves": 789,
      "ont": 790,
      "quick": 791,
      "reg": 792,
      "pped": 793,
      "oney": 794,
      "half": 795,
      "pat": 796,
      "found": 797,
      "tain": 798,
      "ask": 799,
      "buffe": 800,
      "tho": 801,
      "these": 802,
      "hard": 803,
      "cou": 804,
      "money": 805,
      "perfect": 806,
      "deal": 807,
      "bs": 808,
      "awes": 809,
      "pleas": 810,
      "strip": 811,
      "looked": 812,
      "decided": 813,
      "ace": 814,
      "beer": 815,
      "ables": 816,
      "selection": 817,
      "places": 818,
      "gir": 819,
      "ool": 820,
      "awesome": 821,
      "band": 822,
      "sed": 823,
      "called": 824,
      "front": 825,
      "ces": 826,
      "cond": 827,
      "mem": 828,
      "cooked": 829,
      "decent": 830,
      "cer": 831,
      "full": 832,
      "girl": 833,
      "em": 834,
      "ient": 835,
      "breakfast": 836,
      "return": 837,
      "ready": 838,
      "getting": 839,
      "di": 840,
      "done": 841,
      "coffe": 842,
      "fish": 843,
      "cons": 844,
      "fam": 845,
      "care": 846,
      "ately": 847,
      "val": 848,
      "tely": 849,
      "tun": 850,
      "tor": 851,
      "quite": 852,
      "least": 853,
      "far": 854,
      "real": 855,
      "rice": 856,
      "manager": 857,
      "group": 858,
      "pho": 859,
      "arri": 860,
      "years": 861,
      "coffee": 862,
      "fried": 863,
      "que": 864,
      "set": 865,
      "coming": 866,
      "pu": 867,
      "use": 868,
      "large": 869,
      "ue": 870,
      "ded": 871,
      "egg": 872,
      "soup": 873,
      "those": 874,
      "mm": 875,
      "rooms": 876,
      "war": 877,
      "play": 878,
      "each": 879,
      "pen": 880,
      "inside": 881,
      "led": 882,
      "ket": 883,
      "cream": 884,
      "siness": 885,
      "ped": 886,
      "business": 887,
      "desser": 888,
      "huge": 889,
      "press": 890,
      "15": 891,
      "tasty": 892,
      "ale": 893,
      "served": 894,
      "ps": 895,
      "kid": 896,
      "finally": 897,
      "pie": 898,
      "sphere": 899,
      "hor": 900,
      "favorite": 901,
      "cur": 902,
      "ze": 903,
      "buffet": 904,
      "atmo": 905,
      "cheap": 906,
      "beef": 907,
      "tasted": 908,
      "pa": 909,
      "str": 910,
      "ding": 911,
      "nor": 912,
      "spot": 913,
      "arly": 914,
      "atmosphere": 915,
      "run": 916,
      "ared": 917,
      "tac": 918,
      "tra": 919,
      "enti": 920,
      "head": 921,
      "live": 922,
      "!!!": 923,
      "almost": 924,
      "ither": 925,
      "couple": 926,
      "u00e9": 927,
      "ton": 928,
      "waiting": 929,
      "gn": 930,
      "ions": 931,
      "someone": 932,
      "having": 933,
      "cut": 934,
      "hus": 935,
      "ations": 936,
      "without": 937,
      "gave": 938,
      "mas": 939,
      "days": 940,
      "lled": 941,
      "gen": 942,
      "cool": 943,
      "til": 944,
      "tables": 945,
      "keep": 946,
      "icy": 947,
      "seemed": 948,
      "excell": 949,
      "ide": 950,
      "yes": 951,
      "cks": 952,
      "must": 953,
      "excellent": 954,
      "disappointed": 955,
      "husband": 956,
      "outside": 957,
      "potato": 958,
      "three": 959,
      "couldn": 960,
      "busy": 961,
      "eas": 962,
      "sing": 963,
      "reviews": 964,
      "second": 965,
      "uring": 966,
      "comple": 967,
      "ster": 968,
      "stuff": 969,
      "flo": 970,
      "rece": 971,
      "everyone": 972,
      "ican": 973,
      "walk": 974,
      "ted": 975,
      "pri": 976,
      "items": 977,
      "close": 978,
      "itch": 979,
      "later": 980,
      "tu": 981,
      "list": 982,
      "ai": 983,
      "sty": 984,
      "trying": 985,
      "wine": 986,
      "ny": 987,
      "chip": 988,
      "fan": 989,
      "pick": 990,
      "priced": 991,
      "usually": 992,
      "bed": 993,
      "bot": 994,
      "ame": 995,
      "chi": 996,
      "aren": 997,
      "whole": 998,
      "ition": 999,
      "eating": 1000,
      "tiz": 1001,
      "tic": 1002,
      "appetiz": 1003,
      "during": 1004,
      "yel": 1005,
      "proble": 1006,
      "sk": 1007,
      "stead": 1008,
      "music": 1009,
      "shri": 1010,
      "tail": 1011,
      "hours": 1012,
      "waiter": 1013,
      "wrong": 1014,
      "iously": 1015,
      "isn": 1016,
      "chin": 1017,
      "pres": 1018,
      "pm": 1019,
      "shrimp": 1020,
      "until": 1021,
      "plo": 1022,
      "sign": 1023,
      "doesn": 1024,
      "ross": 1025,
      "oc": 1026,
      "either": 1027,
      "gri": 1028,
      "cold": 1029,
      "sun": 1030,
      "quest": 1031,
      "dishes": 1032,
      "walked": 1033,
      "cake": 1034,
      "instead": 1035,
      "ual": 1036,
      "ino": 1037,
      "ary": 1038,
      "nit": 1039,
      "dog": 1040,
      "such": 1041,
      "restaurants": 1042,
      "smo": 1043,
      "guess": 1044,
      "tend": 1045,
      "felt": 1046,
      "crow": 1047,
      "bring": 1048,
      "watch": 1049,
      "vers": 1050,
      "pork": 1051,
      "??": 1052,
      "dy": 1053,
      "cup": 1054,
      "atten": 1055,
      "dry": 1056,
      "ail": 1057,
      "extra": 1058,
      "offer": 1059,
      "card": 1060,
      "family": 1061,
      "bro": 1062,
      "ates": 1063,
      "tive": 1064,
      "floor": 1065,
      "month": 1066,
      "okay": 1067,
      "las": 1068,
      "plate": 1069,
      "wouldn": 1070,
      "cially": 1071,
      "wonder": 1072,
      "ited": 1073,
      "inclu": 1074,
      "party": 1075,
      "decor": 1076,
      "ju": 1077,
      "expen": 1078,
      "ago": 1079,
      "tin": 1080,
      "course": 1081,
      "oh": 1082,
      "surpr": 1083,
      "brought": 1084,
      "boy": 1085,
      "complain": 1086,
      "dessert": 1087,
      "buy": 1088,
      "espe": 1089,
      "sever": 1090,
      "might": 1091,
      "waited": 1092,
      "bb": 1093,
      "ned": 1094,
      "medi": 1095,
      "especially": 1096,
      "needed": 1097,
      "emplo": 1098,
      "fine": 1099,
      "year": 1100,
      "rude": 1101,
      "cal": 1102,
      "res": 1103,
      "several": 1104,
      "expensive": 1105,
      "verage": 1106,
      "impress": 1107,
      "lie": 1108,
      "pool": 1109,
      "astic": 1110,
      "amb": 1111,
      "stre": 1112,
      "lack": 1113,
      "bill": 1114,
      "overall": 1115,
      "choco": 1116,
      "dining": 1117,
      "pack": 1118,
      "glass": 1119,
      "50": 1120,
      "slow": 1121,
      "spicy": 1122,
      "wife": 1123,
      "nch": 1124,
      "started": 1125,
      "cred": 1126,
      "gest": 1127,
      "club": 1128,
      "ds": 1129,
      "saw": 1130,
      "solu": 1131,
      "port": 1132,
      "plus": 1133,
      "happen": 1134,
      "py": 1135,
      "main": 1136,
      "ices": 1137,
      "lad": 1138,
      "nmy": 1139,
      "parking": 1140,
      "arrived": 1141,
      "loved": 1142,
      "employe": 1143,
      "comes": 1144,
      "enjoyed": 1145,
      "ken": 1146,
      "cost": 1147,
      ".\\\"": 1148,
      "worst": 1149,
      "green": 1150,
      "gy": 1151,
      "ended": 1152,
      "fact": 1153,
      "name": 1154,
      "ush": 1155,
      "cked": 1156,
      "mil": 1157,
      "ative": 1158,
      "pan": 1159,
      "member": 1160,
      "var": 1161,
      "vent": 1162,
      "seated": 1163,
      "local": 1164,
      "yelp": 1165,
      "itting": 1166,
      "stop": 1167,
      "non": 1168,
      "chocolate": 1169,
      "ness": 1170,
      "mex": 1171,
      "hair": 1172,
      "ically": 1173,
      "iced": 1174,
      "ced": 1175,
      "horrible": 1176,
      "although": 1177,
      "kids": 1178,
      "owner": 1179,
      "cess": 1180,
      "absolu": 1181,
      "mid": 1182,
      "problem": 1183,
      "inter": 1184,
      "hun": 1185,
      "makes": 1186,
      "ob": 1187,
      "leave": 1188,
      "seat": 1189,
      "bac": 1190,
      "wish": 1191,
      "seems": 1192,
      "customers": 1193,
      "ah": 1194,
      "yum": 1195,
      "comfor": 1196,
      "vo": 1197,
      "ised": 1198,
      "gener": 1199,
      "job": 1200,
      "col": 1201,
      "chips": 1202,
      "pass": 1203,
      "average": 1204,
      "mor": 1205,
      "tru": 1206,
      "options": 1207,
      "ball": 1208,
      "phone": 1209,
      "extre": 1210,
      "thin": 1211,
      "short": 1212,
      "bow": 1213,
      "paid": 1214,
      "plan": 1215,
      "extreme": 1216,
      "liked": 1217,
      "ons": 1218,
      "dress": 1219,
      "key": 1220,
      "lots": 1221,
      "today": 1222,
      "sch": 1223,
      "yet": 1224,
      "finish": 1225,
      "already": 1226,
      "myself": 1227,
      "pur": 1228,
      "mix": 1229,
      "ls": 1230,
      "ture": 1231,
      "regular": 1232,
      "street": 1233,
      "atter": 1234,
      "ia": 1235,
      "ward": 1236,
      "bath": 1237,
      "ight": 1238,
      "!!!!": 1239,
      "ash": 1240,
      "seem": 1241,
      "sor": 1242,
      "lin": 1243,
      "style": 1244,
      "drive": 1245,
      "ital": 1246,
      "rather": 1247,
      "inte": 1248,
      "fair": 1249,
      "fortun": 1250,
      "issu": 1251,
      "terrible": 1252,
      "tea": 1253,
      "bart": 1254,
      "near": 1255,
      "outh": 1256,
      ")\\": 1257,
      "ph": 1258,
      "casino": 1259,
      ":\\": 1260,
      "mind": 1261,
      "bartend": 1262,
      "lish": 1263,
      "llow": 1264,
      "pper": 1265,
      "mean": 1266,
      "wo": 1267,
      "size": 1268,
      "host": 1269,
      "extremely": 1270,
      "anyone": 1271,
      "tle": 1272,
      "class": 1273,
      "mention": 1274,
      "airs": 1275,
      "counter": 1276,
      "mac": 1277,
      "belie": 1278,
      "warm": 1279,
      "ged": 1280,
      "fac": 1281,
      "rolls": 1282,
      "charge": 1283,
      "kitch": 1284,
      "beau": 1285,
      "deli": 1286,
      "mexican": 1287,
      "emp": 1288,
      "working": 1289,
      "12": 1290,
      "kitchen": 1291,
      "bland": 1292,
      "sub": 1293,
      "trip": 1294,
      "gers": 1295,
      "lit": 1296,
      "bacon": 1297,
      "weekend": 1298,
      "guys": 1299,
      "lob": 1300,
      "ider": 1301,
      "poor": 1302,
      "absolutely": 1303,
      "given": 1304,
      "tacos": 1305,
      "ins": 1306,
      "ping": 1307,
      "ban": 1308,
      "amoun": 1309,
      "cris": 1310,
      "reserv": 1311,
      "interest": 1312,
      "pos": 1313,
      "cy": 1314,
      "dro": 1315,
      "thai": 1316,
      "crab": 1317,
      "sitting": 1318,
      "doing": 1319,
      "spend": 1320,
      "bor": 1321,
      "nthis": 1322,
      "\\\".": 1323,
      "understand": 1324,
      "tip": 1325,
      "ird": 1326,
      "form": 1327,
      "season": 1328,
      "helpful": 1329,
      "entire": 1330,
      "impressed": 1331,
      "ones": 1332,
      "etc": 1333,
      "fant": 1334,
      "veget": 1335,
      "date": 1336,
      "cook": 1337,
      "icul": 1338,
      "stick": 1339,
      "sea": 1340,
      "serve": 1341,
      "ween": 1342,
      "change": 1343,
      "pop": 1344,
      "making": 1345,
      "pepper": 1346,
      "wall": 1347,
      "seen": 1348,
      "dar": 1349,
      "burgers": 1350,
      "wonderful": 1351,
      "prom": 1352,
      "sme": 1353,
      "looks": 1354,
      "fix": 1355,
      "sl": 1356,
      "app": 1357,
      "bbq": 1358,
      "ran": 1359,
      "satur": 1360,
      "nood": 1361,
      "num": 1362,
      "produ": 1363,
      "amount": 1364,
      "ides": 1365,
      "prof": 1366,
      "chang": 1367,
      "four": 1368,
      "kept": 1369,
      "honest": 1370,
      "att": 1371,
      "lou": 1372,
      "rid": 1373,
      "white": 1374,
      "tiful": 1375,
      "portions": 1376,
      "fantastic": 1377,
      "heard": 1378,
      "cakes": 1379,
      "fa": 1380,
      "fer": 1381,
      "**": 1382,
      "hope": 1383,
      "da": 1384,
      "gets": 1385,
      "chef": 1386,
      "aving": 1387,
      "unfortun": 1388,
      "beautiful": 1389,
      "butter": 1390,
      "hop": 1391,
      "between": 1392,
      "fro": 1393,
      "recei": 1394,
      "bag": 1395,
      "wings": 1396,
      "completely": 1397,
      "zen": 1398,
      "morning": 1399,
      "sam": 1400,
      "je": 1401,
      "comfortable": 1402,
      "life": 1403,
      "tomato": 1404,
      "sug": 1405,
      "spr": 1406,
      "dou": 1407,
      "soon": 1408,
      "apo": 1409,
      "norm": 1410,
      "weren": 1411,
      "black": 1412,
      "believe": 1413,
      "suggest": 1414,
      "rect": 1415,
      "eni": 1416,
      "consider": 1417,
      "wed": 1418,
      "enty": 1419,
      "expected": 1420,
      "saturday": 1421,
      "avo": 1422,
      "nif": 1423,
      "hear": 1424,
      "pping": 1425,
      "chas": 1426,
      "doll": 1427,
      "11": 1428,
      "dir": 1429,
      "ele": 1430,
      "seating": 1431,
      "exc": 1432,
      "remember": 1433,
      "empty": 1434,
      "company": 1435,
      "wind": 1436,
      "chinese": 1437,
      "recent": 1438,
      "gone": 1439,
      "twice": 1440,
      "ession": 1441,
      "dd": 1442,
      "mush": 1443,
      "corn": 1444,
      "itself": 1445,
      "taking": 1446,
      "quickly": 1447,
      "salsa": 1448,
      "easy": 1449,
      "nthey": 1450,
      "zed": 1451,
      "highly": 1452,
      "lady": 1453,
      "suppo": 1454,
      "attentive": 1455,
      "employees": 1456,
      "tv": 1457,
      "hind": 1458,
      "early": 1459,
      "nso": 1460,
      "avail": 1461,
      "bucks": 1462,
      "sad": 1463,
      "seriously": 1464,
      "bowl": 1465,
      "conven": 1466,
      "bly": 1467,
      "french": 1468,
      "unfortunately": 1469,
      "choice": 1470,
      "appetizer": 1471,
      "vel": 1472,
      "portion": 1473,
      "varie": 1474,
      "behind": 1475,
      "luck": 1476,
      "potatoes": 1477,
      "bell": 1478,
      "eggs": 1479,
      "stayed": 1480,
      "due": 1481,
      "walking": 1482,
      "ade": 1483,
      "received": 1484,
      "ouch": 1485,
      "hit": 1486,
      "pet": 1487,
      "oil": 1488,
      "thank": 1489,
      "nail": 1490,
      "none": 1491,
      "gan": 1492,
      "possi": 1493,
      "offered": 1494,
      "patio": 1495,
      "certain": 1496,
      "pleasant": 1497,
      "gam": 1498,
      "ized": 1499,
      "needs": 1500,
      "nam": 1501,
      "others": 1502,
      "prep": 1503,
      "often": 1504,
      "ley": 1505,
      "box": 1506,
      "cock": 1507,
      "loud": 1508,
      "pasta": 1509,
      "standard": 1510,
      "bir": 1511,
      "sound": 1512,
      "across": 1513,
      "tot": 1514,
      "uni": 1515,
      "stopped": 1516,
      "gry": 1517,
      "giving": 1518,
      "wel": 1519,
      "explain": 1520,
      "sim": 1521,
      "desk": 1522,
      "available": 1523,
      "type": 1524,
      "sorry": 1525,
      "augh": 1526,
      "plenty": 1527,
      "italian": 1528,
      "treat": 1529,
      "bite": 1530,
      "ordering": 1531,
      "lim": 1532,
      "rito": 1533,
      "profession": 1534,
      "nover": 1535,
      "present": 1536,
      "flavors": 1537,
      "vi": 1538,
      "consist": 1539,
      "purchas": 1540,
      "orders": 1541,
      "event": 1542,
      "mag": 1543,
      "ments": 1544,
      "please": 1545,
      "ute": 1546,
      "saying": 1547,
      "miss": 1548,
      "die": 1549,
      "fully": 1550,
      "amer": 1551,
      "totally": 1552,
      "ram": 1553,
      "25": 1554,
      "tex": 1555,
      "beans": 1556,
      "knew": 1557,
      "variety": 1558,
      "enix": 1559,
      "ita": 1560,
      "phoenix": 1561,
      "reasonable": 1562,
      "...\\": 1563,
      "deser": 1564,
      "months": 1565,
      "standing": 1566,
      "burrito": 1567,
      "along": 1568,
      "garlic": 1569,
      "sandwiches": 1570,
      "dirty": 1571,
      "ear": 1572,
      "exact": 1573,
      "sunday": 1574,
      "dan": 1575,
      "game": 1576,
      "paying": 1577,
      "40": 1578,
      "cocktail": 1579,
      "professional": 1580,
      "bartender": 1581,
      "?\\": 1582,
      "moved": 1583,
      "gree": 1584,
      "ator": 1585,
      "temp": 1586,
      "greas": 1587,
      "typic": 1588,
      "den": 1589,
      "ister": 1590,
      "guest": 1591,
      "wow": 1592,
      "pal": 1593,
      "scot": 1594,
      "friday": 1595,
      "evening": 1596,
      "azy": 1597,
      "packed": 1598,
      "land": 1599,
      "count": 1600,
      "pain": 1601,
      "enter": 1602,
      "cont": 1603,
      "grilled": 1604,
      "ben": 1605,
      "choo": 1606,
      "ible": 1607,
      "ling": 1608,
      "servers": 1609,
      "taco": 1610,
      "filled": 1611,
      "taken": 1612,
      "medio": 1613,
      "zz": 1614,
      "located": 1615,
      "birth": 1616,
      "apolo": 1617,
      "om": 1618,
      "cafe": 1619,
      "noticed": 1620,
      "heal": 1621,
      "space": 1622,
      "overpriced": 1623,
      "unless": 1624,
      "simple": 1625,
      "body": 1626,
      "greet": 1627,
      "pap": 1628,
      "girls": 1629,
      "yummy": 1630,
      "anyway": 1631,
      "sell": 1632,
      "thanks": 1633,
      "prov": 1634,
      "noverall": 1635,
      "hostess": 1636,
      "office": 1637,
      "igh": 1638,
      "hold": 1639,
      "mediocre": 1640,
      "gether": 1641,
      "together": 1642,
      "sometimes": 1643,
      "sho": 1644,
      "idea": 1645,
      "pes": 1646,
      "bi": 1647,
      "ied": 1648,
      "bun": 1649,
      "45": 1650,
      "perfectly": 1651,
      "sof": 1652,
      "liter": 1653,
      "manage": 1654,
      "satis": 1655,
      "dle": 1656,
      "eaten": 1657,
      "tly": 1658,
      "ature": 1659,
      "crust": 1660,
      "five": 1661,
      "figu": 1662,
      "ients": 1663,
      "leg": 1664,
      "crap": 1665,
      "?!": 1666,
      "bathroom": 1667,
      "grab": 1668,
      "city": 1669,
      "boyfriend": 1670,
      "mall": 1671,
      "health": 1672,
      "addition": 1673,
      "lobster": 1674,
      "ming": 1675,
      "request": 1676,
      "seafood": 1677,
      "book": 1678,
      "row": 1679,
      "lay": 1680,
      "ingred": 1681,
      "park": 1682,
      "toast": 1683,
      "move": 1684,
      "partic": 1685,
      "ond": 1686,
      "mach": 1687,
      "talk": 1688,
      "lly": 1689,
      "itu": 1690,
      "number": 1691,
      "wrap": 1692,
      "crowd": 1693,
      "window": 1694,
      "ries": 1695,
      "pieces": 1696,
      "sn": 1697,
      "birthday": 1698,
      "unk": 1699,
      "sage": 1700,
      "excited": 1701,
      "iance": 1702,
      "mess": 1703,
      "middle": 1704,
      "hungry": 1705,
      "ery": 1706,
      "total": 1707,
      "closed": 1708,
      "sen": 1709,
      "based": 1710,
      "face": 1711,
      "glad": 1712,
      "99": 1713,
      "yo": 1714,
      "using": 1715,
      "arely": 1716,
      "case": 1717,
      "opened": 1718,
      "surprised": 1719,
      "crispy": 1720,
      "immedi": 1721,
      "shot": 1722,
      "wise": 1723,
      "joint": 1724,
      "literally": 1725,
      "round": 1726,
      "piece": 1727,
      "crowded": 1728,
      "haven": 1729,
      "blu": 1730,
      "salmon": 1731,
      "lla": 1732,
      "wash": 1733,
      "incred": 1734,
      "minute": 1735,
      "says": 1736,
      "issue": 1737,
      "checked": 1738,
      "hang": 1739,
      "medium": 1740,
      "dam": 1741,
      "scre": 1742,
      "ging": 1743,
      "ank": 1744,
      "world": 1745,
      "smell": 1746,
      ").\\": 1747,
      "proper": 1748,
      "charged": 1749,
      "awful": 1750,
      "choose": 1751,
      "ambiance": 1752,
      "product": 1753,
      "spect": 1754,
      "ical": 1755,
      "ild": 1756,
      "met": 1757,
      "fru": 1758,
      "ses": 1759,
      ".....": 1760,
      "supposed": 1761,
      "berry": 1762,
      "ents": 1763,
      "longer": 1764,
      "fat": 1765,
      "inst": 1766,
      "abo": 1767,
      "obv": 1768,
      "ko": 1769,
      "avy": 1770,
      "pricey": 1771,
      "ier": 1772,
      "noodles": 1773,
      "100": 1774,
      "yourself": 1775,
      "interesting": 1776,
      "ada": 1777,
      "follow": 1778,
      "sli": 1779,
      "build": 1780,
      "eye": 1781,
      "bottle": 1782,
      "ters": 1783,
      "spent": 1784,
      "beers": 1785,
      "takes": 1786,
      "salty": 1787,
      "spl": 1788,
      "tour": 1789,
      "prepared": 1790,
      "bage": 1791,
      "bought": 1792,
      "turned": 1793,
      "coup": 1794,
      "tem": 1795,
      "disappointing": 1796,
      "reservation": 1797,
      "slight": 1798,
      "gies": 1799,
      "option": 1800,
      "weeks": 1801,
      "rib": 1802,
      "plates": 1803,
      "brunch": 1804,
      "upon": 1805,
      "onion": 1806,
      "picture": 1807,
      "gin": 1808,
      "ired": 1809,
      "mouth": 1810,
      "rating": 1811,
      "center": 1812,
      "talking": 1813,
      "cking": 1814,
      "fy": 1815,
      "dance": 1816,
      "feeling": 1817,
      "credit": 1818,
      "frozen": 1819,
      "immediately": 1820,
      "saus": 1821,
      "youn": 1822,
      "contin": 1823,
      "hum": 1824,
      "tender": 1825,
      "mine": 1826,
      "particular": 1827,
      "ingredients": 1828,
      "kets": 1829,
      "wy": 1830,
      "hell": 1831,
      "sw": 1832,
      "orig": 1833,
      "section": 1834,
      "asian": 1835,
      "happened": 1836,
      "har": 1837,
      "recently": 1838,
      "basically": 1839,
      "resp": 1840,
      "ote": 1841,
      "cove": 1842,
      "within": 1843,
      "neigh": 1844,
      "except": 1845,
      "honestly": 1846,
      "blue": 1847,
      "preci": 1848,
      "origin": 1849,
      "iculous": 1850,
      "exactly": 1851,
      "choices": 1852,
      "cap": 1853,
      "apparen": 1854,
      "including": 1855,
      "post": 1856,
      "west": 1857,
      "slic": 1858,
      "color": 1859,
      "goes": 1860,
      "cute": 1861,
      "shopping": 1862,
      "appetizers": 1863,
      "ww": 1864,
      "whate": 1865,
      "touch": 1866,
      "lax": 1867,
      "posit": 1868,
      "ience": 1869,
      "noon": 1870,
      "ption": 1871,
      "dark": 1872,
      "somewhere": 1873,
      "ridiculous": 1874,
      "chain": 1875,
      "note": 1876,
      "dale": 1877,
      "management": 1878,
      "ison": 1879,
      "chance": 1880,
      "meet": 1881,
      "forgot": 1882,
      "weird": 1883,
      "covered": 1884,
      "simp": 1885,
      "neighbor": 1886,
      "desc": 1887,
      "ana": 1888,
      "cab": 1889,
      ":)": 1890,
      "mail": 1891,
      "fur": 1892,
      "tap": 1893,
      "sour": 1894,
      "oot": 1895,
      "soft": 1896,
      "ado": 1897,
      "noy": 1898,
      "rush": 1899,
      "estab": 1900,
      "attitu": 1901,
      "specials": 1902,
      "sort": 1903,
      "added": 1904,
      "appointment": 1905,
      "authen": 1906,
      "simply": 1907,
      "whatever": 1908,
      "establish": 1909,
      "mmer": 1910,
      "hate": 1911,
      "roast": 1912,
      "hy": 1913,
      "ris": 1914,
      "authentic": 1915,
      "allow": 1916,
      "placed": 1917,
      "staying": 1918,
      "avoid": 1919,
      "appreci": 1920,
      "meals": 1921,
      "sides": 1922,
      "refill": 1923,
      "nthere": 1924,
      "annoy": 1925,
      "appro": 1926,
      "nas": 1927,
      "hh": 1928,
      "correct": 1929,
      "entre": 1930,
      "bal": 1931,
      "adv": 1932,
      "salt": 1933,
      "tsdale": 1934,
      "asking": 1935,
      "uts": 1936,
      "lemon": 1937,
      "ties": 1938,
      "fit": 1939,
      "tiny": 1940,
      "scottsdale": 1941,
      "iting": 1942,
      "sle": 1943,
      "hood": 1944,
      "grand": 1945,
      "tuna": 1946,
      "relax": 1947,
      "mic": 1948,
      "apple": 1949,
      "nservice": 1950,
      "squ": 1951,
      "sausage": 1952,
      "flavorful": 1953,
      "fall": 1954,
      "beat": 1955,
      "child": 1956,
      "u00f": 1957,
      "wood": 1958,
      "above": 1959,
      "possible": 1960,
      "ges": 1961,
      "train": 1962,
      "oooo": 1963,
      "anywhere": 1964,
      "apparently": 1965,
      "changed": 1966,
      "rock": 1967,
      "ites": 1968,
      "nwhen": 1969,
      "attention": 1970,
      "ctor": 1971,
      "kinda": 1972,
      "prefer": 1973,
      "sent": 1974,
      "greasy": 1975,
      "hands": 1976,
      "level": 1977,
      "amp": 1978,
      "flat": 1979,
      "worse": 1980,
      "mom": 1981,
      "curry": 1982,
      "typical": 1983,
      "ined": 1984,
      "rence": 1985,
      "brown": 1986,
      "write": 1987,
      "gust": 1988,
      "ilet": 1989,
      "ribs": 1990,
      "ulti": 1991,
      "($": 1992,
      "win": 1993,
      "bab": 1994,
      "nic": 1995,
      "ence": 1996,
      "downtown": 1997,
      "chili": 1998,
      "save": 1999,
      "attitude": 2000,
      "ities": 2001,
      "waste": 2002,
      "speak": 2003,
      "expecting": 2004,
      "airport": 2005,
      "spo": 2006,
      "organ": 2007,
      "unique": 2008,
      "cash": 2009,
      "limited": 2010,
      "crazy": 2011,
      "compl": 2012,
      "matter": 2013,
      "recommended": 2014,
      "cir": 2015,
      "thinking": 2016,
      "seats": 2017,
      "worked": 2018,
      "stairs": 2019,
      "respon": 2020,
      "als": 2021,
      "entrees": 2022,
      "thick": 2023,
      "serving": 2024,
      "ize": 2025,
      "cover": 2026,
      "ched": 2027,
      "mart": 2028,
      "station": 2029,
      "margar": 2030,
      "lettu": 2031,
      "lost": 2032,
      "fairly": 2033,
      "mixed": 2034,
      "arian": 2035,
      "lettuce": 2036,
      "school": 2037,
      "paper": 2038,
      "ior": 2039,
      "forward": 2040,
      "conf": 2041,
      "ship": 2042,
      "rel": 2043,
      "selves": 2044,
      "item": 2045,
      "opin": 2046,
      "dressing": 2047,
      "entree": 2048,
      "tasting": 2049,
      "ump": 2050,
      "ledge": 2051,
      "usual": 2052,
      "bottom": 2053,
      "certainly": 2054,
      "board": 2055,
      "american": 2056,
      "mer": 2057,
      "bul": 2058,
      "orts": 2059,
      "yeah": 2060,
      "photo": 2061,
      "showed": 2062,
      "value": 2063,
      "ini": 2064,
      "neg": 2065,
      "antly": 2066,
      "onions": 2067,
      "ka": 2068,
      "fil": 2069,
      "barely": 2070,
      "finished": 2071,
      "mentioned": 2072,
      "assu": 2073,
      "colle": 2074,
      "slightly": 2075,
      "nfor": 2076,
      "market": 2077,
      "aring": 2078,
      "playing": 2079,
      "salads": 2080,
      "considering": 2081,
      "ham": 2082,
      "trad": 2083,
      "ork": 2084,
      "haps": 2085,
      "share": 2086,
      "rare": 2087,
      "24": 2088,
      "dogs": 2089,
      "pol": 2090,
      "ising": 2091,
      "prev": 2092,
      "desserts": 2093,
      "spec": 2094,
      "running": 2095,
      "daugh": 2096,
      "ppings": 2097,
      "single": 2098,
      "woman": 2099,
      "concer": 2100,
      "rot": 2101,
      "iment": 2102,
      "gross": 2103,
      "perhaps": 2104,
      "dollars": 2105,
      "rep": 2106,
      "straw": 2107,
      "lights": 2108,
      "tech": 2109,
      "online": 2110,
      "14": 2111,
      "grill": 2112,
      "spin": 2113,
      "greeted": 2114,
      "burgh": 2115,
      "young": 2116,
      "fruit": 2117,
      "south": 2118,
      "patr": 2119,
      "convenient": 2120,
      "cept": 2121,
      "mostly": 2122,
      "toppings": 2123,
      "forget": 2124,
      "veggies": 2125,
      "moder": 2126,
      "bri": 2127,
      "dont": 2128,
      "opinion": 2129,
      "vin": 2130,
      "delivery": 2131,
      "cali": 2132,
      "cannot": 2133,
      "wer": 2134,
      "occas": 2135,
      "mad": 2136,
      "ently": 2137,
      "vegetarian": 2138,
      "ili": 2139,
      "bes": 2140,
      "foot": 2141,
      "clearly": 2142,
      "picked": 2143,
      "obviously": 2144,
      "booth": 2145,
      "word": 2146,
      "tastes": 2147,
      "lid": 2148,
      "included": 2149,
      "equ": 2150,
      "afternoon": 2151,
      "elsewhere": 2152,
      "valley": 2153,
      "hoo": 2154,
      "watching": 2155,
      "massage": 2156,
      "desp": 2157,
      "ial": 2158,
      "baked": 2159,
      "seeing": 2160,
      "remin": 2161,
      "gor": 2162,
      "?\\\"": 2163,
      "leaving": 2164,
      "scr": 2165,
      "nights": 2166,
      "aking": 2167,
      "sales": 2168,
      "bon": 2169,
      "means": 2170,
      "loun": 2171,
      "jor": 2172,
      "ground": 2173,
      "truly": 2174,
      "bby": 2175,
      "nbut": 2176,
      "nat": 2177,
      "iron": 2178,
      "mins": 2179,
      "sou": 2180,
      "ility": 2181,
      "fee": 2182,
      "true": 2183,
      "desig": 2184,
      "!)": 2185,
      "gel": 2186,
      "imag": 2187,
      "stoo": 2188,
      "groupon": 2189,
      "esday": 2190,
      "comb": 2191,
      "ug": 2192,
      "ards": 2193,
      "ky": 2194,
      "gie": 2195,
      "fied": 2196,
      "glasses": 2197,
      "establishment": 2198,
      "prompt": 2199,
      "chop": 2200,
      "ics": 2201,
      "combo": 2202,
      "disgust": 2203,
      "ware": 2204,
      "strong": 2205,
      "lines": 2206,
      "lol": 2207,
      ".)": 2208,
      "nails": 2209,
      "despite": 2210,
      "ens": 2211,
      "cing": 2212,
      "heat": 2213,
      "vac": 2214,
      "issues": 2215,
      "daughter": 2216,
      "dge": 2217,
      "summer": 2218,
      "illa": 2219,
      "forever": 2220,
      "building": 2221,
      "visited": 2222,
      "ages": 2223,
      "cli": 2224,
      "ountain": 2225,
      "13": 2226,
      "arch": 2227,
      "pulled": 2228,
      "net": 2229,
      "ending": 2230,
      "memor": 2231,
      "dip": 2232,
      "major": 2233,
      "stores": 2234,
      "resort": 2235,
      "gotten": 2236,
      "urt": 2237,
      "normally": 2238,
      "clear": 2239,
      "corner": 2240,
      "yog": 2241,
      "apart": 2242,
      "nour": 2243,
      "reading": 2244,
      "ists": 2245,
      "fire": 2246,
      "employee": 2247,
      "trave": 2248,
      "stud": 2249,
      "chairs": 2250,
      "meh": 2251,
      "neighborhood": 2252,
      "nand": 2253,
      "easily": 2254,
      "solid": 2255,
      "torti": 2256,
      "prime": 2257,
      "filling": 2258,
      "alone": 2259,
      "iss": 2260,
      "chose": 2261,
      "works": 2262,
      "movie": 2263,
      "mc": 2264,
      "situ": 2265,
      "pour": 2266,
      "smoo": 2267,
      "convers": 2268,
      "heart": 2269,
      "ift": 2270,
      "cashi": 2271,
      "stra": 2272,
      "accom": 2273,
      "ggy": 2274,
      "frequ": 2275,
      "mit": 2276,
      "double": 2277,
      "otherwise": 2278,
      "rate": 2279,
      "lear": 2280,
      "const": 2281,
      "split": 2282,
      "begin": 2283,
      "icure": 2284,
      "whel": 2285,
      "fail": 2286,
      "seasoned": 2287,
      "ona": 2288,
      "diff": 2289,
      "owners": 2290,
      "chan": 2291,
      "outdoor": 2292,
      "bunch": 2293,
      "coupon": 2294,
      "odd": 2295,
      "accommo": 2296,
      "notice": 2297,
      "lamb": 2298,
      "mand": 2299,
      "deep": 2300,
      "nn": 2301,
      "sas": 2302,
      "salon": 2303,
      "normal": 2304,
      "formed": 2305,
      "personal": 2306,
      "ather": 2307,
      "gro": 2308,
      "sports": 2309,
      "nearly": 2310,
      "original": 2311,
      "ants": 2312,
      "tonight": 2313,
      "compared": 2314,
      "ination": 2315,
      "fau": 2316,
      "bis": 2317,
      "expectations": 2318,
      "tory": 2319,
      "ler": 2320,
      "sugar": 2321,
      "visiting": 2322,
      "guests": 2323,
      "lier": 2324,
      "returning": 2325,
      "lux": 2326,
      "simil": 2327,
      "ari": 2328,
      "smaller": 2329,
      "van": 2330,
      "nall": 2331,
      "lounge": 2332,
      "games": 2333,
      "jap": 2334,
      "law": 2335,
      "multi": 2336,
      "smooth": 2337,
      "ford": 2338,
      "ques": 2339,
      "guac": 2340,
      "brand": 2341,
      "story": 2342,
      "straight": 2343,
      "pancakes": 2344,
      "apologi": 2345,
      "mistake": 2346,
      "checking": 2347,
      "shows": 2348,
      "helped": 2349,
      "process": 2350,
      "mini": 2351,
      "complete": 2352,
      "chil": 2353,
      "complaint": 2354,
      "ident": 2355,
      "disappointment": 2356,
      "separ": 2357,
      "healthy": 2358,
      "dum": 2359,
      "rich": 2360,
      "nin": 2361,
      "cat": 2362,
      "tered": 2363,
      "nt": 2364,
      "fancy": 2365,
      "ples": 2366,
      "slice": 2367,
      "secur": 2368,
      "safe": 2369,
      "tradition": 2370,
      "bother": 2371,
      "contact": 2372,
      "road": 2373,
      "explained": 2374,
      "ower": 2375,
      "quie": 2376,
      "orange": 2377,
      "eno": 2378,
      "craving": 2379,
      "baby": 2380,
      "bud": 2381,
      "turkey": 2382,
      "known": 2383,
      "general": 2384,
      "specif": 2385,
      "cheaper": 2386,
      "nach": 2387,
      "bers": 2388,
      "balls": 2389,
      "nd": 2390,
      "question": 2391,
      "fol": 2392,
      "stuffed": 2393,
      "inform": 2394,
      "shower": 2395,
      "spring": 2396,
      "stood": 2397,
      "security": 2398,
      "ath": 2399,
      "knowledge": 2400,
      "questions": 2401,
      "cted": 2402,
      "load": 2403,
      "texture": 2404,
      "spa": 2405,
      "mushrooms": 2406,
      "attend": 2407,
      "modern": 2408,
      "hotels": 2409,
      "tons": 2410,
      "alco": 2411,
      "japan": 2412,
      "18": 2413,
      "smoke": 2414,
      "hip": 2415,
      "shops": 2416,
      "surprise": 2417,
      "fut": 2418,
      "state": 2419,
      "entertain": 2420,
      "difficul": 2421,
      "amy": 2422,
      "ahead": 2423,
      "mill": 2424,
      "sum": 2425,
      "lovely": 2426,
      "syste": 2427,
      "veggie": 2428,
      "reservations": 2429,
      "gold": 2430,
      "urs": 2431,
      "bars": 2432,
      "zer": 2433,
      "itas": 2434,
      "foods": 2435,
      "pas": 2436,
      "owing": 2437,
      "soggy": 2438,
      "higher": 2439,
      "alcoho": 2440,
      "missing": 2441,
      "knows": 2442,
      "sauces": 2443,
      "bey": 2444,
      "cla": 2445,
      "mash": 2446,
      "range": 2447,
      "ref": 2448,
      "similar": 2449,
      "crunch": 2450,
      "n2": 2451,
      "aa": 2452,
      "nafter": 2453,
      "basic": 2454,
      "shared": 2455,
      "brow": 2456,
      "ict": 2457,
      "vibe": 2458,
      "iv": 2459,
      "experienced": 2460,
      "sched": 2461,
      "chic": 2462,
      "duck": 2463,
      "----": 2464,
      "detail": 2465,
      "bt": 2466,
      "sized": 2467,
      "damn": 2468,
      "actual": 2469,
      "webs": 2470,
      "test": 2471,
      "pers": 2472,
      "\\\",": 2473,
      "future": 2474,
      "gym": 2475,
      "lacking": 2476,
      "push": 2477,
      "treated": 2478,
      "import": 2479,
      "tickets": 2480,
      "spinach": 2481,
      "funny": 2482,
      "agio": 2483,
      "charlot": 2484,
      "cand": 2485,
      "charlotte": 2486,
      "beyond": 2487,
      "living": 2488,
      "200": 2489,
      "sense": 2490,
      "tough": 2491,
      "melt": 2492,
      "entr": 2493,
      "impro": 2494,
      "fry": 2495,
      "ibly": 2496,
      "compliment": 2497,
      "disgusting": 2498,
      "san": 2499,
      "figured": 2500,
      "website": 2501,
      "juice": 2502,
      "oni": 2503,
      "pad": 2504,
      "claim": 2505,
      "oy": 2506,
      "slices": 2507,
      "tax": 2508,
      "agree": 2509,
      "elev": 2510,
      "jack": 2511,
      "sister": 2512,
      "qui": 2513,
      "sick": 2514,
      "mary": 2515,
      "95": 2516,
      "16": 2517,
      "returned": 2518,
      "soda": 2519,
      "bean": 2520,
      "afford": 2521,
      "venue": 2522,
      "ns": 2523,
      "milk": 2524,
      "machine": 2525,
      "pract": 2526,
      "generous": 2527,
      "purchase": 2528,
      "cashier": 2529,
      "booked": 2530,
      "previous": 2531,
      "caes": 2532,
      "exception": 2533,
      "desert": 2534,
      "shut": 2535,
      "bus": 2536,
      "conversation": 2537,
      "somewhat": 2538,
      "action": 2539,
      "ker": 2540,
      "hall": 2541,
      "positive": 2542,
      "inking": 2543,
      "livered": 2544,
      "system": 2545,
      "bellagio": 2546,
      "n1": 2547,
      "tt": 2548,
      "anymore": 2549,
      "satisfied": 2550,
      "__": 2551,
      "spice": 2552,
      "answer": 2553,
      "lock": 2554,
      "bott": 2555,
      "outstanding": 2556,
      "delivered": 2557,
      "callop": 2558,
      "mole": 2559,
      "hoping": 2560,
      "indian": 2561,
      "tomatoes": 2562,
      "willing": 2563,
      "sucks": 2564,
      "shir": 2565,
      "kick": 2566,
      "folks": 2567,
      "hash": 2568,
      "difficult": 2569,
      "chat": 2570,
      "filet": 2571,
      "kill": 2572,
      "ffic": 2573,
      "skin": 2574,
      "ape": 2575,
      "scallop": 2576,
      "multiple": 2577,
      "alo": 2578,
      "rated": 2579,
      "doctor": 2580,
      "nicely": 2581,
      "discount": 2582,
      "situation": 2583,
      "dough": 2584,
      "ladies": 2585,
      "fing": 2586,
      "cul": 2587,
      "dep": 2588,
      "cleaning": 2589,
      "negative": 2590,
      "rup": 2591,
      "mir": 2592,
      "search": 2593,
      "didnt": 2594,
      "scen": 2595,
      "email": 2596,
      "pitt": 2597,
      "dollar": 2598,
      "upgr": 2599,
      "cocktails": 2600,
      "drop": 2601,
      "vegetables": 2602,
      "moving": 2603,
      "fic": 2604,
      "products": 2605,
      "listen": 2606,
      "shit": 2607,
      "pean": 2608,
      "jam": 2609,
      "ule": 2610,
      "incredibly": 2611,
      "aged": 2612,
      "third": 2613,
      "alright": 2614,
      "dim": 2615,
      "flight": 2616,
      "nfood": 2617,
      "bled": 2618,
      "prior": 2619,
      "drinking": 2620,
      "bartenders": 2621,
      "quiet": 2622,
      "send": 2623,
      "thru": 2624,
      "ride": 2625,
      "services": 2626,
      "traditional": 2627,
      "yu": 2628,
      "problems": 2629,
      "attemp": 2630,
      "omelet": 2631,
      "walls": 2632,
      "juicy": 2633,
      "roasted": 2634,
      "hill": 2635,
      "everywhere": 2636,
      "overcooked": 2637,
      "imagine": 2638,
      "ee": 2639,
      "tract": 2640,
      "vol": 2641,
      "pictures": 2642,
      "ane": 2643,
      "cele": 2644,
      "60": 2645,
      "sters": 2646,
      "wedding": 2647,
      "trust": 2648,
      "telling": 2649,
      "compan": 2650,
      "grocer": 2651,
      "blood": 2652,
      "vert": 2653,
      "mark": 2654,
      "broth": 2655,
      "japanese": 2656,
      "nnow": 2657,
      "creamy": 2658,
      "hey": 2659,
      "gent": 2660,
      "gift": 2661,
      "starbucks": 2662,
      "interior": 2663,
      "bak": 2664,
      "likely": 2665,
      "mal": 2666,
      "ring": 2667,
      "presentation": 2668,
      "ara": 2669,
      "buffets": 2670,
      "noodle": 2671,
      "dated": 2672,
      "informed": 2673,
      "bone": 2674,
      "mother": 2675,
      "locations": 2676,
      "experiences": 2677,
      "appreciate": 2678,
      "drunk": 2679,
      "older": 2680,
      "aft": 2681,
      "refun": 2682,
      "hadn": 2683,
      "heavy": 2684,
      "env": 2685,
      "pub": 2686,
      "fly": 2687,
      "commun": 2688,
      "cow": 2689,
      "eless": 2690,
      "feet": 2691,
      "throughout": 2692,
      "lived": 2693,
      "stuck": 2694,
      "meats": 2695,
      "avoc": 2696,
      "elevator": 2697,
      "pitts": 2698,
      "fficient": 2699,
      "flu": 2700,
      "step": 2701,
      "overly": 2702,
      "women": 2703,
      "smile": 2704,
      "gas": 2705,
      "legs": 2706,
      "york": 2707,
      "register": 2708,
      "crack": 2709,
      "lets": 2710,
      "celebr": 2711,
      "ribe": 2712,
      "ramen": 2713,
      "peppers": 2714,
      "girlfriend": 2715,
      "cher": 2716,
      "annoying": 2717,
      "raw": 2718,
      "eyes": 2719,
      "surprising": 2720,
      "steam": 2721,
      "contain": 2722,
      "pressive": 2723,
      "rand": 2724,
      "tofu": 2725,
      "oz": 2726,
      "resu": 2727,
      "snack": 2728,
      "chees": 2729,
      "ariz": 2730,
      "pittsburgh": 2731,
      "honey": 2732,
      "cep": 2733,
      "forni": 2734,
      "cum": 2735,
      "exam": 2736,
      "jal": 2737,
      "opening": 2738,
      "mood": 2739,
      "realized": 2740,
      "monday": 2741,
      "impressive": 2742,
      "igno": 2743,
      "mode": 2744,
      "casual": 2745,
      "zy": 2746,
      "eng": 2747,
      "antic": 2748,
      "trans": 2749,
      "comment": 2750,
      "direct": 2751,
      "jer": 2752,
      "regard": 2753,
      "californi": 2754,
      "80": 2755,
      "figure": 2756,
      "brew": 2757,
      "incredible": 2758,
      "sil": 2759,
      "tern": 2760,
      "update": 2761,
      "pleased": 2762,
      "strange": 2763,
      "ches": 2764,
      "tte": 2765,
      "god": 2766,
      "aki": 2767,
      "bites": 2768,
      "arizona": 2769,
      "theater": 2770,
      "pull": 2771,
      "lucky": 2772,
      "homemade": 2773,
      "purchased": 2774,
      "thor": 2775,
      "occasion": 2776,
      "patient": 2777,
      "kore": 2778,
      "additional": 2779,
      "uten": 2780,
      "children": 2781,
      "carry": 2782,
      "scale": 2783,
      "bulous": 2784,
      "dj": 2785,
      "fault": 2786,
      "shell": 2787,
      "gon": 2788,
      "north": 2789,
      "lobby": 2790,
      "nfirst": 2791,
      "repe": 2792,
      "advert": 2793,
      "fles": 2794,
      "arrive": 2795,
      "amari": 2796,
      "pizzas": 2797,
      "keeping": 2798,
      "n3": 2799,
      "nachos": 2800,
      "chill": 2801,
      "sleep": 2802,
      "workers": 2803,
      "bigger": 2804,
      "catch": 2805,
      "spac": 2806,
      "avocado": 2807,
      "fabulous": 2808,
      "mashed": 2809,
      "bf": 2810,
      "wynn": 2811,
      "cuis": 2812,
      "ceed": 2813,
      "ered": 2814,
      "iling": 2815,
      "montre": 2816,
      "patrons": 2817,
      "crisp": 2818,
      "california": 2819,
      "yogurt": 2820,
      "engl": 2821,
      "montreal": 2822,
      "driving": 2823,
      "doubt": 2824,
      "calamari": 2825,
      "laugh": 2826,
      "vegan": 2827,
      "doors": 2828,
      "broken": 2829,
      "ats": 2830,
      "alcohol": 2831,
      "ors": 2832,
      "sadly": 2833,
      "dating": 2834,
      "nalso": 2835,
      "nyou": 2836,
      "pros": 2837,
      "aves": 2838,
      "below": 2839,
      "menus": 2840,
      "gravy": 2841,
      "amole": 2842,
      "realize": 2843,
      "spectac": 2844,
      "continu": 2845,
      "necess": 2846,
      "topped": 2847,
      "setting": 2848,
      "appeared": 2849,
      "thurs": 2850,
      "enchil": 2851,
      "dead": 2852,
      "guacamole": 2853,
      "suite": 2854,
      "cooking": 2855,
      "compar": 2856,
      "mushroom": 2857,
      "deci": 2858,
      "cance": 2859,
      "environ": 2860,
      "hea": 2861,
      "nearby": 2862,
      "?)": 2863,
      "generally": 2864,
      "cant": 2865,
      "dropped": 2866,
      "fixed": 2867,
      "personally": 2868,
      "ticket": 2869,
      "tart": 2870,
      "country": 2871,
      "spoke": 2872,
      "themselves": 2873,
      "35": 2874,
      "ried": 2875,
      "90": 2876,
      "offers": 2877,
      "joke": 2878,
      "une": 2879,
      "popular": 2880,
      "gard": 2881,
      "moment": 2882,
      "screen": 2883,
      "hole": 2884,
      "plant": 2885,
      "loves": 2886,
      "bris": 2887,
      "east": 2888,
      "yester": 2889,
      "thes": 2890,
      "u00e0": 2891,
      "gm": 2892,
      "male": 2893,
      "korean": 2894,
      "paren": 2895,
      "!\\\"": 2896,
      "steaks": 2897,
      "stomach": 2898,
      "machin": 2899,
      "cleaned": 2900,
      "core": 2901,
      "difference": 2902,
      "het": 2903,
      "pink": 2904,
      "finding": 2905,
      "nut": 2906,
      "environment": 2907,
      "rings": 2908,
      "complaints": 2909,
      "plastic": 2910,
      "u00e8": 2911,
      "concept": 2912,
      "shame": 2913,
      "zel": 2914,
      "vet": 2915,
      "famili": 2916,
      "played": 2917,
      "express": 2918,
      "yesterday": 2919,
      "match": 2920,
      "spots": 2921,
      "spectacular": 2922,
      "entrance": 2923,
      "kin": 2924,
      "zu": 2925,
      "chicago": 2926,
      "lf": 2927,
      "tro": 2928,
      "needless": 2929,
      "decide": 2930,
      "pricing": 2931,
      "machines": 2932,
      "stage": 2933,
      "inten": 2934,
      "greed": 2935,
      "visits": 2936,
      "ffle": 2937,
      "shoes": 2938,
      "wai": 2939,
      "knowledgeable": 2940,
      "ki": 2941,
      "separate": 2942,
      "hur": 2943,
      "frequent": 2944,
      "inv": 2945,
      "cin": 2946,
      "bright": 2947,
      "clothes": 2948,
      "fountain": 2949,
      "respect": 2950,
      "nap": 2951,
      "haha": 2952,
      "ys": 2953,
      "margarita": 2954,
      "iled": 2955,
      "access": 2956,
      "hubby": 2957,
      "usion": 2958,
      "interested": 2959,
      "slider": 2960,
      "grocery": 2961,
      "asty": 2962,
      "pita": 2963,
      "adul": 2964,
      "whether": 2965,
      "aster": 2966,
      "reasonably": 2967,
      "gyro": 2968,
      "truck": 2969,
      "wanting": 2970,
      "diner": 2971,
      "smoking": 2972,
      "deliver": 2973,
      "ams": 2974,
      "photos": 2975,
      "depart": 2976,
      "classic": 2977,
      "accep": 2978,
      "ric": 2979,
      "terri": 2980,
      "tasteless": 2981,
      "cuisine": 2982,
      "75": 2983,
      "fli": 2984,
      "bay": 2985,
      "mel": 2986,
      "greens": 2987,
      "thre": 2988,
      "chand": 2989,
      "important": 2990,
      ":/": 2991,
      "throw": 2992,
      "rub": 2993,
      "nwhat": 2994,
      "requested": 2995,
      "valet": 2996,
      "court": 2997,
      "stated": 2998,
      "nu": 2999,
      "polite": 3000,
      "heaven": 3001,
      "sold": 3002,
      "bling": 3003,
      "opted": 3004,
      "rd": 3005,
      "rain": 3006,
      "vine": 3007,
      "ranch": 3008,
      "anyways": 3009,
      "passed": 3010,
      "minim": 3011,
      "fell": 3012,
      "six": 3013,
      "buying": 3014,
      "rist": 3015,
      "skip": 3016,
      "chewy": 3017,
      "tuesday": 3018,
      "conne": 3019,
      "pin": 3020,
      "larger": 3021,
      "earlier": 3022,
      "areas": 3023,
      "19": 3024,
      "dine": 3025,
      "replace": 3026,
      "biggest": 3027,
      "feels": 3028,
      "receive": 3029,
      "giant": 3030,
      "rav": 3031,
      "lives": 3032,
      "thered": 3033,
      "???": 3034,
      "cars": 3035,
      "tar": 3036,
      "bat": 3037,
      "efficient": 3038,
      "boring": 3039,
      "particularly": 3040,
      "nasty": 3041,
      "outs": 3042,
      "consistent": 3043,
      "compet": 3044,
      "notch": 3045,
      "zero": 3046,
      "spending": 3047,
      "proceed": 3048,
      "olive": 3049,
      "dent": 3050,
      "response": 3051,
      "moist": 3052,
      "version": 3053,
      "buff": 3054,
      "english": 3055,
      "strawberry": 3056,
      "wide": 3057,
      "gives": 3058,
      "ung": 3059,
      "hr": 3060,
      "become": 3061,
      "provide": 3062,
      "frust": 3063,
      "burnt": 3064,
      "continue": 3065,
      "shouldn": 3066,
      "putting": 3067,
      "wered": 3068,
      "zo": 3069,
      "und": 3070,
      "caesar": 3071,
      "fare": 3072,
      "refund": 3073,
      "print": 3074,
      "yellow": 3075,
      "smoked": 3076,
      "admit": 3077,
      "init": 3078,
      "hid": 3079,
      "nnot": 3080,
      "liqu": 3081,
      "refills": 3082,
      "scallops": 3083,
      "cro": 3084,
      "ipped": 3085,
      "random": 3086,
      "owned": 3087,
      "!!\\": 3088,
      "waf": 3089,
      "pis": 3090,
      "welcome": 3091,
      "greek": 3092,
      "$$": 3093,
      "carne": 3094,
      "sale": 3095,
      "cc": 3096,
      "various": 3097,
      "banana": 3098,
      "anim": 3099,
      "brisket": 3100,
      "trou": 3101,
      "platter": 3102,
      "pedicure": 3103,
      "mate": 3104,
      "draw": 3105,
      "parts": 3106,
      "besides": 3107,
      "design": 3108,
      "cuse": 3109,
      "song": 3110,
      "marin": 3111,
      ":(": 3112,
      "sampl": 3113,
      "goodness": 3114,
      "ais": 3115,
      "calling": 3116,
      "swi": 3117,
      "points": 3118,
      "waitresses": 3119,
      "cards": 3120,
      "suggested": 3121,
      "missed": 3122,
      "2nd": 3123,
      "combination": 3124,
      "ase": 3125,
      "chipot": 3126,
      "luckily": 3127,
      "square": 3128,
      "mile": 3129,
      "upset": 3130,
      "tub": 3131,
      "selections": 3132,
      "rat": 3133,
      "favorites": 3134,
      "receip": 3135,
      "belly": 3136,
      "ached": 3137,
      "biscu": 3138,
      "serious": 3139,
      "power": 3140,
      "beds": 3141,
      "words": 3142,
      "garden": 3143,
      "ura": 3144,
      "fash": 3145,
      "overwhel": 3146,
      "dozen": 3147,
      "closer": 3148,
      "ential": 3149,
      "onto": 3150,
      "bags": 3151,
      "parents": 3152,
      "tired": 3153,
      "switch": 3154,
      "scene": 3155,
      "types": 3156,
      "dest": 3157,
      "ala": 3158,
      "provided": 3159,
      "talked": 3160,
      "bathrooms": 3161,
      "wear": 3162,
      "base": 3163,
      "chipotle": 3164,
      "affordable": 3165,
      "chair": 3166,
      "ield": 3167,
      "lat": 3168,
      "complimentary": 3169,
      "internet": 3170,
      "further": 3171,
      "bottles": 3172,
      "agreed": 3173,
      "tortilla": 3174,
      "wifi": 3175,
      "atu": 3176,
      "uncomfortable": 3177,
      "neither": 3178,
      "confir": 3179,
      "clubs": 3180,
      "bom": 3181,
      "hn": 3182,
      "christ": 3183,
      "organized": 3184,
      "fashion": 3185,
      "allowed": 3186,
      "assist": 3187,
      "tren": 3188,
      "acceptable": 3189,
      "polish": 3190,
      "kno": 3191,
      "possibly": 3192,
      "****": 3193,
      "hic": 3194,
      "thursday": 3195,
      "berries": 3196,
      "miles": 3197,
      "cheesecake": 3198,
      "cocon": 3199,
      "......": 3200,
      "excuse": 3201,
      "ends": 3202,
      "sting": 3203,
      "tempe": 3204,
      "hummus": 3205,
      "refresh": 3206,
      "carame": 3207,
      "surance": 3208,
      "suck": 3209,
      "tower": 3210,
      "affle": 3211,
      "soooo": 3212,
      "wards": 3213,
      "ication": 3214,
      "team": 3215,
      "lead": 3216,
      "cupcakes": 3217,
      "ory": 3218,
      "dancing": 3219,
      "tian": 3220,
      "priv": 3221,
      "suc": 3222,
      "sounds": 3223,
      "against": 3224,
      "mgm": 3225,
      "driver": 3226,
      "mmmm": 3227,
      "ketch": 3228,
      "seasoning": 3229,
      "adas": 3230,
      "acknow": 3231,
      "coconut": 3232,
      "improve": 3233,
      "batter": 3234,
      "mango": 3235,
      "daily": 3236,
      "drove": 3237,
      "delight": 3238,
      "carrot": 3239,
      "lv": 3240,
      "gelato": 3241,
      "cookies": 3242,
      "awk": 3243,
      "college": 3244,
      "oysters": 3245,
      "cha": 3246,
      "cco": 3247,
      "property": 3248,
      "promptly": 3249,
      "surprisingly": 3250,
      "ioli": 3251,
      "waffle": 3252,
      "hopefully": 3253,
      "insurance": 3254,
      "zes": 3255,
      "lower": 3256,
      "vanilla": 3257,
      "pair": 3258,
      "nov": 3259,
      "hon": 3260,
      "gs": 3261,
      "dire": 3262,
      "lacked": 3263,
      "viet": 3264,
      "mayo": 3265,
      "condition": 3266,
      "fort": 3267,
      "dev": 3268,
      "thy": 3269,
      "lighting": 3270,
      "relative": 3271,
      "vide": 3272,
      "pure": 3273,
      "tire": 3274,
      "noh": 3275,
      "awhile": 3276,
      "crunchy": 3277,
      "waiters": 3278,
      "information": 3279,
      "iness": 3280,
      "hawai": 3281,
      "bakery": 3282,
      "ano": 3283,
      "wrapped": 3284,
      "reminded": 3285,
      "asada": 3286,
      "70": 3287,
      "current": 3288,
      "wants": 3289,
      "hardly": 3290,
      "awkward": 3291,
      "stock": 3292,
      "cart": 3293,
      "towards": 3294,
      "famous": 3295,
      "hype": 3296,
      "donuts": 3297,
      "brother": 3298,
      "deals": 3299,
      "dre": 3300,
      "waffles": 3301,
      "boun": 3302,
      "vic": 3303,
      "www": 3304,
      "vene": 3305,
      "ency": 3306,
      "shoc": 3307,
      "sticks": 3308,
      "hosp": 3309,
      "donal": 3310,
      "niture": 3311,
      "till": 3312,
      "buffalo": 3313,
      "gonna": 3314,
      "htt": 3315,
      "trash": 3316,
      "blah": 3317,
      "://": 3318,
      "properly": 3319,
      "madison": 3320,
      "corpor": 3321,
      "training": 3322,
      "quee": 3323,
      "himi": 3324,
      "bou": 3325,
      "furniture": 3326,
      "travel": 3327,
      "ners": 3328,
      "cups": 3329,
      "basket": 3330,
      "relaxing": 3331,
      "members": 3332,
      "aller": 3333,
      "oke": 3334,
      "writing": 3335,
      "bing": 3336,
      "subst": 3337,
      "thats": 3338,
      "perfection": 3339,
      "cident": 3340,
      "sliders": 3341,
      "gentle": 3342,
      "receipt": 3343,
      "ral": 3344,
      "fran": 3345,
      "following": 3346,
      "noise": 3347,
      "crappy": 3348,
      "suppose": 3349,
      "sashimi": 3350,
      "hanging": 3351,
      "sucked": 3352,
      "eth": 3353,
      "feed": 3354,
      "stup": 3355,
      "impression": 3356,
      "margaritas": 3357,
      "thus": 3358,
      "flag": 3359,
      "appeal": 3360,
      "dist": 3361,
      "oper": 3362,
      "blow": 3363,
      "yaki": 3364,
      "repair": 3365,
      "pine": 3366,
      "goo": 3367,
      "smelled": 3368,
      "21": 3369,
      "http": 3370,
      "tag": 3371,
      ",\\\"": 3372,
      "wt": 3373,
      "shake": 3374,
      "basil": 3375,
      "sample": 3376,
      "hidden": 3377,
      "sliced": 3378,
      "soo": 3379,
      "windows": 3380,
      "publ": 3381,
      "vip": 3382,
      "peanut": 3383,
      "ray": 3384,
      "holi": 3385,
      "calls": 3386,
      "locals": 3387,
      "upstairs": 3388,
      "ilt": 3389,
      "satisfy": 3390,
      "nuts": 3391,
      "joe": 3392,
      "dressed": 3393,
      "icated": 3394,
      "chow": 3395,
      "wild": 3396,
      "convenience": 3397,
      "gluten": 3398,
      "ney": 3399,
      "aside": 3400,
      "nobody": 3401,
      "handle": 3402,
      "bagel": 3403,
      "ordin": 3404,
      "wing": 3405,
      "helping": 3406,
      "soy": 3407,
      "exp": 3408,
      "surround": 3409,
      "costs": 3410,
      "appear": 3411,
      "happens": 3412,
      "welcoming": 3413,
      "refused": 3414,
      "spacious": 3415,
      "closing": 3416,
      "comfort": 3417,
      "bringing": 3418,
      "upscale": 3419,
      "polic": 3420,
      "sav": 3421,
      "melted": 3422,
      "accommodating": 3423,
      "scoo": 3424,
      "ignored": 3425,
      "cozy": 3426,
      "weekends": 3427,
      "ference": 3428,
      "compare": 3429,
      "watched": 3430,
      "nto": 3431,
      "apologized": 3432,
      "client": 3433,
      "aud": 3434,
      "knowing": 3435,
      "syrup": 3436,
      "tells": 3437,
      "17": 3438,
      "compu": 3439,
      "confused": 3440,
      "cookie": 3441,
      "rad": 3442,
      "cell": 3443,
      "ctions": 3444,
      "dive": 3445,
      "thri": 3446,
      "stale": 3447,
      "dumpl": 3448,
      "dding": 3449,
      "vietnam": 3450,
      "serves": 3451,
      "package": 3452,
      "los": 3453,
      "stupid": 3454,
      "wan": 3455,
      "lime": 3456,
      "dried": 3457,
      "enjoyable": 3458,
      "mcdonal": 3459,
      "weather": 3460,
      "wedn": 3461,
      "mozz": 3462,
      "mot": 3463,
      "whenever": 3464,
      "department": 3465,
      "truffle": 3466,
      "wtf": 3467,
      "teen": 3468,
      "decis": 3469,
      "vacation": 3470,
      "ica": 3471,
      "hes": 3472,
      "island": 3473,
      "replaced": 3474,
      "nicer": 3475,
      "scream": 3476,
      "bank": 3477,
      "tempura": 3478,
      "ering": 3479,
      "trac": 3480,
      "gem": 3481,
      "unks": 3482,
      "support": 3483,
      "ify": 3484,
      "dad": 3485,
      "typically": 3486,
      "leaves": 3487,
      "alay": 3488,
      "candy": 3489,
      "def": 3490,
      "tvs": 3491,
      "nhowever": 3492,
      "macar": 3493,
      "tan": 3494,
      "cers": 3495,
      "aming": 3496,
      "christmas": 3497,
      "public": 3498,
      "via": 3499,
      "natur": 3500,
      "llas": 3501,
      "tab": 3502,
      "jac": 3503,
      "sol": 3504,
      "pound": 3505,
      "account": 3506,
      "vod": 3507,
      "eventually": 3508,
      "fest": 3509,
      "bel": 3510,
      "site": 3511,
      "....\\": 3512,
      "john": 3513,
      "venetian": 3514,
      "shad": 3515,
      "specialty": 3516,
      "ets": 3517,
      "sels": 3518,
      "zing": 3519,
      "turns": 3520,
      "u00e9e": 3521,
      "changes": 3522,
      "tors": 3523,
      "thorough": 3524,
      "cket": 3525,
      "ourselves": 3526,
      "omg": 3527,
      "pudding": 3528,
      "exist": 3529,
      "temper": 3530,
      "ire": 3531,
      "threw": 3532,
      "refreshing": 3533,
      "wet": 3534,
      "silver": 3535,
      "ener": 3536,
      "managed": 3537,
      "rit": 3538,
      "spoon": 3539,
      "gorge": 3540,
      "ntheir": 3541,
      "mild": 3542,
      "groups": 3543,
      "nois": 3544,
      "annoyed": 3545,
      "advice": 3546,
      "aria": 3547,
      "coke": 3548,
      "common": 3549,
      "wels": 3550,
      "stru": 3551,
      "nie": 3552,
      "flavorless": 3553,
      "!!!\\": 3554,
      "aters": 3555,
      "fle": 3556,
      "offering": 3557,
      "rushed": 3558,
      "exten": 3559,
      "private": 3560,
      "das": 3561,
      "handed": 3562,
      "consu": 3563,
      "unprofessional": 3564,
      "reception": 3565,
      "sounded": 3566,
      "starting": 3567,
      "among": 3568,
      "somehow": 3569,
      "cosmo": 3570,
      "effort": 3571,
      "champ": 3572,
      "meant": 3573,
      "mustard": 3574,
      "cupcake": 3575,
      "include": 3576,
      "cucum": 3577,
      "relatively": 3578,
      "flow": 3579,
      "yal": 3580,
      "jalap": 3581,
      "regre": 3582,
      "rolled": 3583,
      "arella": 3584,
      "dipping": 3585,
      "memorable": 3586,
      "biz": 3587,
      "vietnamese": 3588,
      "wax": 3589,
      "brus": 3590,
      "display": 3591,
      "carpet": 3592,
      "asso": 3593,
      "comfy": 3594,
      "!).": 3595,
      "nel": 3596,
      "layout": 3597,
      "aded": 3598,
      "nevery": 3599,
      "ives": 3600,
      "ambience": 3601,
      "rental": 3602,
      "vodka": 3603,
      ".\\\"\\": 3604,
      "instru": 3605,
      "factory": 3606,
      "lef": 3607,
      "brocco": 3608,
      "nthat": 3609,
      "grap": 3610,
      "yy": 3611,
      "parties": 3612,
      "accept": 3613,
      "consistently": 3614,
      "mr": 3615,
      "pretzel": 3616,
      "schedul": 3617,
      "weak": 3618,
      "ours": 3619,
      "beware": 3620,
      "fight": 3621,
      "broccoli": 3622,
      "meatballs": 3623,
      "address": 3624,
      "signature": 3625,
      "eu": 3626,
      "tips": 3627,
      "ras": 3628,
      "rang": 3629,
      "gorgeous": 3630,
      "quesad": 3631,
      "upgrade": 3632,
      "stone": 3633,
      "bened": 3634,
      "vehic": 3635,
      "proceeded": 3636,
      "microw": 3637,
      "rely": 3638,
      "ffin": 3639,
      "corporate": 3640,
      "remain": 3641,
      "floors": 3642,
      "tapas": 3643,
      "constantly": 3644,
      "chile": 3645,
      "appreciated": 3646,
      "towels": 3647,
      "recommendation": 3648,
      "ito": 3649,
      "gotta": 3650,
      "booths": 3651,
      "outine": 3652,
      "enjoying": 3653,
      "social": 3654,
      "beginning": 3655,
      "oven": 3656,
      "lazy": 3657,
      "reasons": 3658,
      "learned": 3659,
      "iter": 3660,
      "distance": 3661,
      "ror": 3662,
      "lefto": 3663,
      "pup": 3664,
      "slo": 3665,
      "presented": 3666,
      "budget": 3667,
      "headed": 3668,
      "picky": 3669,
      "laid": 3670,
      "crepe": 3671,
      "steakhouse": 3672,
      "potential": 3673,
      "mozzarella": 3674,
      "unlike": 3675,
      "n4": 3676,
      "ya": 3677,
      "theme": 3678,
      "plied": 3679,
      "temperature": 3680,
      "dig": 3681,
      "shirt": 3682,
      "lan": 3683,
      "shred": 3684,
      "cram": 3685,
      "ription": 3686,
      "kins": 3687,
      "cheesy": 3688,
      "yell": 3689,
      "delish": 3690,
      "patty": 3691,
      "inti": 3692,
      "sake": 3693,
      "contro": 3694,
      "final": 3695,
      "frank": 3696,
      "goat": 3697,
      "shocked": 3698,
      "thern": 3699,
      "poorly": 3700,
      "wednesday": 3701,
      "ille": 3702,
      "indust": 3703,
      "cross": 3704,
      "ev": 3705,
      "illy": 3706,
      "pleasantly": 3707,
      "ria": 3708,
      "grease": 3709,
      "martini": 3710,
      "ruined": 3711,
      "icked": 3712,
      "signs": 3713,
      "focus": 3714,
      "produce": 3715,
      "advis": 3716,
      "charges": 3717,
      "anda": 3718,
      "signed": 3719,
      "install": 3720,
      "became": 3721,
      "sole": 3722,
      "gras": 3723,
      "ened": 3724,
      "termin": 3725,
      "han": 3726,
      "ines": 3727,
      "sex": 3728,
      "mont": 3729,
      "facility": 3730,
      "treatment": 3731,
      "paris": 3732,
      "parmes": 3733,
      "yelpers": 3734,
      "bits": 3735,
      "ol": 3736,
      "mat": 3737,
      "pump": 3738,
      "tam": 3739,
      "argu": 3740,
      "teri": 3741,
      "steamed": 3742,
      "trouble": 3743,
      "inos": 3744,
      "stain": 3745,
      "example": 3746,
      "ury": 3747,
      "tortillas": 3748,
      "span": 3749,
      "jum": 3750,
      "comed": 3751,
      "speed": 3752,
      "tray": 3753,
      "classes": 3754,
      "trendy": 3755,
      "wearing": 3756,
      "select": 3757,
      "policy": 3758,
      "benedict": 3759,
      "mous": 3760,
      "miso": 3761,
      "meeting": 3762,
      "schedule": 3763,
      "parmesan": 3764,
      "drag": 3765,
      "boba": 3766,
      "ayce": 3767,
      "track": 3768,
      "pill": 3769,
      "ann": 3770,
      "edible": 3771,
      "sight": 3772,
      "necessary": 3773,
      "thetic": 3774,
      "sizes": 3775,
      "cuts": 3776,
      "accor": 3777,
      "vegetable": 3778,
      "began": 3779,
      "rave": 3780,
      "appropri": 3781,
      "nno": 3782,
      "absolute": 3783,
      "toilet": 3784,
      "field": 3785,
      "gum": 3786,
      "aware": 3787,
      "diet": 3788,
      "garage": 3789,
      "coupons": 3790,
      ":-": 3791,
      "agne": 3792,
      "hello": 3793,
      "nthen": 3794,
      "affic": 3795,
      "downstairs": 3796,
      "regret": 3797,
      "caf": 3798,
      "shuttle": 3799,
      "secre": 3800,
      "ek": 3801,
      "shots": 3802,
      "ette": 3803,
      "complained": 3804,
      "pies": 3805,
      "pac": 3806,
      "vous": 3807,
      "exceptional": 3808,
      "lap": 3809,
      "promot": 3810,
      "bloody": 3811,
      "boys": 3812,
      "standards": 3813,
      "avored": 3814,
      "vs": 3815,
      "creme": 3816,
      "likes": 3817,
      "........": 3818,
      "parag": 3819,
      "bang": 3820,
      "compe": 3821,
      "kinds": 3822,
      "oppor": 3823,
      "kim": 3824,
      "traffic": 3825,
      "opportun": 3826,
      "skill": 3827,
      "chunks": 3828,
      "cous": 3829,
      "muffin": 3830,
      "bomb": 3831,
      "cents": 3832,
      "slaw": 3833,
      "exe": 3834,
      "specifically": 3835,
      "quired": 3836,
      "gour": 3837,
      "itten": 3838,
      "cirque": 3839,
      "pointed": 3840,
      "fridge": 3841,
      "pineapple": 3842,
      "computer": 3843,
      "u00e4": 3844,
      "correctly": 3845,
      "spag": 3846,
      "creative": 3847,
      "insp": 3848,
      "sang": 3849,
      "mandalay": 3850,
      "associ": 3851,
      "indiv": 3852,
      "ginger": 3853,
      "anti": 3854,
      "voice": 3855,
      "learn": 3856,
      "bike": 3857,
      "sticky": 3858,
      "bra": 3859,
      "individ": 3860,
      "oured": 3861,
      "anytime": 3862,
      "hil": 3863,
      "continued": 3864,
      "yard": 3865,
      "browns": 3866,
      "antage": 3867,
      "seconds": 3868,
      "palace": 3869,
      "spaghet": 3870,
      "pitch": 3871,
      "stri": 3872,
      "flavored": 3873,
      "1st": 3874,
      "starts": 3875,
      "hint": 3876,
      "block": 3877,
      "max": 3878,
      "books": 3879,
      "spread": 3880,
      "allen": 3881,
      "listed": 3882,
      "starving": 3883,
      "video": 3884,
      "fav": 3885,
      "ories": 3886,
      "pastries": 3887,
      "!!!!!": 3888,
      "mission": 3889,
      "ngreat": 3890,
      "ially": 3891,
      "answered": 3892,
      "pepperoni": 3893,
      "consistency": 3894,
      "els": 3895,
      "hook": 3896,
      "control": 3897,
      "cry": 3898,
      "tight": 3899,
      "teous": 3900,
      "highlight": 3901,
      "refer": 3902,
      "prote": 3903,
      "occasions": 3904,
      "loaded": 3905,
      "weight": 3906,
      "fake": 3907,
      "fingers": 3908,
      "3rd": 3909,
      "aple": 3910,
      "spaghetti": 3911,
      "chefs": 3912,
      "decorated": 3913,
      "attempt": 3914,
      "rious": 3915,
      "cowork": 3916,
      "ational": 3917,
      "fans": 3918,
      "del": 3919,
      "warrant": 3920,
      "eh": 3921,
      "specific": 3922,
      "len": 3923,
      "toasted": 3924,
      "courteous": 3925,
      "teriyaki": 3926,
      "venture": 3927,
      "saving": 3928,
      "neat": 3929,
      "heck": 3930,
      "ama": 3931,
      "mountain": 3932,
      "iest": 3933,
      "obvious": 3934,
      "hurry": 3935,
      "speaking": 3936,
      "organic": 3937,
      "shredded": 3938,
      "chopped": 3939,
      "uses": 3940,
      "eggplant": 3941,
      "casinos": 3942,
      "entertainment": 3943,
      "uine": 3944,
      "ager": 3945,
      "equip": 3946,
      "impossible": 3947,
      "cig": 3948,
      "posted": 3949,
      "enchiladas": 3950,
      "kidding": 3951,
      "massive": 3952,
      "rio": 3953,
      "complex": 3954,
      "quar": 3955,
      "crum": 3956,
      "perform": 3957,
      "bass": 3958,
      "charging": 3959,
      "followed": 3960,
      "rack": 3961,
      "dealer": 3962,
      "caramel": 3963,
      "ku": 3964,
      "itted": 3965,
      "advantage": 3966,
      "tat": 3967,
      "hopes": 3968,
      "soups": 3969,
      "inks": 3970,
      "bagels": 3971,
      "rage": 3972,
      "breast": 3973,
      "dude": 3974,
      "ron": 3975,
      "views": 3976,
      "rose": 3977,
      "dumplings": 3978,
      "ein": 3979,
      "nope": 3980,
      "scar": 3981,
      "22": 3982,
      "undercooked": 3983,
      "gate": 3984,
      "perio": 3985,
      "planning": 3986,
      "nur": 3987,
      "loin": 3988,
      "liness": 3989,
      "according": 3990,
      "ctive": 3991,
      "ugh": 3992,
      "ctr": 3993,
      "inexpensive": 3994,
      "classy": 3995,
      "manicure": 3996,
      "tad": 3997,
      "caught": 3998,
      "scram": 3999,
      "lame": 4000,
      "decision": 4001,
      "golden": 4002,
      "arm": 4003,
      "craft": 4004,
      "luke": 4005,
      "broke": 4006,
      "rarely": 4007,
      "ketchup": 4008,
      "reli": 4009,
      "mint": 4010,
      "ific": 4011,
      "concerned": 4012,
      "cil": 4013,
      "craw": 4014,
      "chur": 4015,
      "central": 4016,
      "discovered": 4017,
      "paragus": 4018,
      "gourmet": 4019,
      "apology": 4020,
      "rough": 4021,
      "30pm": 4022,
      "otto": 4023,
      "equipment": 4024,
      "apartment": 4025,
      "biscuits": 4026,
      "intro": 4027,
      "planet": 4028,
      "gun": 4029,
      "ami": 4030,
      "describe": 4031,
      "fees": 4032,
      "courses": 4033,
      "recor": 4034,
      "champagne": 4035,
      "extensive": 4036,
      "names": 4037,
      "underwhel": 4038,
      "erous": 4039,
      "chris": 4040,
      "suit": 4041,
      "lose": 4042,
      "pickles": 4043,
      "showing": 4044,
      "cinnam": 4045,
      "sem": 4046,
      "wont": 4047,
      "patron": 4048,
      "holiday": 4049,
      "dos": 4050,
      ".,": 4051,
      "asparagus": 4052,
      "wines": 4053,
      "cinnamon": 4054,
      "challen": 4055,
      "feature": 4056,
      "ignon": 4057,
      "fed": 4058,
      "bles": 4059,
      "mussels": 4060,
      "bered": 4061,
      "gru": 4062,
      "directly": 4063,
      "electr": 4064,
      "hearing": 4065,
      "trick": 4066,
      "freshly": 4067,
      "holly": 4068,
      "embar": 4069,
      "hous": 4070,
      "grant": 4071,
      "repeat": 4072,
      "selling": 4073,
      "result": 4074,
      "named": 4075,
      "terms": 4076,
      "..\\": 4077,
      "stack": 4078,
      "ability": 4079,
      "ceiling": 4080,
      "blast": 4081,
      "ravioli": 4082,
      "alot": 4083,
      "picking": 4084,
      "pheno": 4085,
      "staffed": 4086,
      "events": 4087,
      "renov": 4088,
      "crepes": 4089,
      "football": 4090,
      "worker": 4091,
      "sprouts": 4092,
      "originally": 4093,
      "fatty": 4094,
      "lts": 4095,
      "rr": 4096,
      "includes": 4097,
      "paint": 4098,
      "cheddar": 4099,
      "advance": 4100,
      "failed": 4101,
      "pi": 4102,
      "numerous": 4103,
      "____": 4104,
      "jun": 4105,
      "lect": 4106,
      "female": 4107,
      "ows": 4108,
      "ndon": 4109,
      "mmm": 4110,
      "bonus": 4111,
      "ridiculously": 4112,
      "fluff": 4113,
      "vehicle": 4114,
      "gall": 4115,
      "tta": 4116,
      "nanyway": 4117,
      "worry": 4118,
      "burritos": 4119,
      "wasnt": 4120,
      "smells": 4121,
      "foie": 4122,
      "log": 4123,
      "opportunity": 4124,
      "grabbed": 4125,
      "studio": 4126,
      "minimum": 4127,
      "rubber": 4128,
      "forced": 4129,
      "--------": 4130,
      "hawaiian": 4131,
      "eve": 4132,
      "written": 4133,
      "phenomen": 4134,
      "gain": 4135,
      "secret": 4136,
      "nwhile": 4137,
      "screw": 4138,
      "quant": 4139,
      "heated": 4140,
      "saved": 4141,
      "iding": 4142,
      "dust": 4143,
      "buck": 4144,
      "removed": 4145,
      "toss": 4146,
      "offerings": 4147,
      "olives": 4148,
      "whis": 4149,
      "atta": 4150,
      "reviewers": 4151,
      "ified": 4152,
      "altern": 4153,
      "fect": 4154,
      "asure": 4155,
      "regardless": 4156,
      ".)\\": 4157,
      "gal": 4158,
      "minus": 4159,
      "finger": 4160,
      "assume": 4161,
      "chor": 4162,
      "diners": 4163,
      "introdu": 4164,
      "autom": 4165,
      "amen": 4166,
      "insist": 4167,
      "---": 4168,
      "familiar": 4169,
      "insu": 4170,
      "cucumber": 4171,
      "pose": 4172,
      "spoil": 4173,
      "velvet": 4174,
      "pedi": 4175,
      "cot": 4176,
      "wand": 4177,
      "factor": 4178,
      "chu": 4179,
      "spices": 4180,
      "icing": 4181,
      "fool": 4182,
      "pressure": 4183,
      "mushy": 4184,
      "savory": 4185,
      "anni": 4186,
      "ava": 4187,
      "shirts": 4188,
      "ordinary": 4189,
      "ished": 4190,
      "btw": 4191,
      "quesadilla": 4192,
      "himself": 4193,
      "buns": 4194,
      "yuck": 4195,
      "southern": 4196,
      "gambling": 4197,
      "ore": 4198,
      "!!!!!!!!": 4199,
      "hesit": 4200,
      "verse": 4201,
      "lip": 4202,
      "descri": 4203,
      "farm": 4204,
      "cue": 4205,
      "lli": 4206,
      "quot": 4207,
      "iments": 4208,
      "u00a": 4209,
      "fellow": 4210,
      "pesto": 4211,
      "ske": 4212,
      "000": 4213,
      "presso": 4214,
      "atered": 4215,
      "tires": 4216,
      "tific": 4217,
      "remem": 4218,
      "recommendations": 4219,
      "tran": 4220,
      "seum": 4221,
      "wanna": 4222,
      "vies": 4223,
      "edin": 4224,
      "sky": 4225,
      "pig": 4226,
      "spar": 4227,
      "bert": 4228,
      "membership": 4229,
      "ngood": 4230,
      "quil": 4231,
      "walmart": 4232,
      "unt": 4233,
      "ppy": 4234,
      "natural": 4235,
      "clothing": 4236,
      "held": 4237,
      "ribeye": 4238,
      "subway": 4239,
      "bach": 4240,
      "tage": 4241,
      "warning": 4242,
      "fork": 4243,
      "warned": 4244,
      "complaining": 4245,
      "remembered": 4246,
      "reserved": 4247,
      "bothered": 4248,
      "constru": 4249,
      "beach": 4250,
      "sno": 4251,
      "topping": 4252,
      "bull": 4253,
      "discus": 4254,
      "phenomenal": 4255,
      "mainly": 4256,
      "insane": 4257,
      "depending": 4258,
      "balance": 4259,
      "thum": 4260,
      "pissed": 4261,
      "arant": 4262,
      "ga": 4263,
      "edinburgh": 4264,
      "latte": 4265,
      ":)\\": 4266,
      "bump": 4267,
      "vinegar": 4268,
      "message": 4269,
      "coast": 4270,
      "closest": 4271,
      "stylist": 4272,
      "crew": 4273,
      "llar": 4274,
      "prepare": 4275,
      "ously": 4276,
      "liquor": 4277,
      "hospital": 4278,
      "golf": 4279,
      "popcorn": 4280,
      "scratch": 4281,
      "freak": 4282,
      "polit": 4283,
      "ncons": 4284,
      "mainten": 4285,
      "roof": 4286,
      "dred": 4287,
      "ism": 4288,
      "museum": 4289,
      "midnight": 4290,
      "dined": 4291,
      "individual": 4292,
      "romantic": 4293,
      "boxes": 4294,
      "reci": 4295,
      "buds": 4296,
      "pets": 4297,
      "arrival": 4298,
      "auto": 4299,
      "antro": 4300,
      "atic": 4301,
      "ject": 4302,
      "granted": 4303,
      "snow": 4304,
      "lor": 4305,
      "lined": 4306,
      "bever": 4307,
      "period": 4308,
      "posed": 4309,
      "faj": 4310,
      "rass": 4311,
      "scheduled": 4312,
      "nwell": 4313,
      "adding": 4314,
      "ache": 4315,
      "lab": 4316,
      "desired": 4317,
      "inde": 4318,
      "apologize": 4319,
      "grass": 4320,
      "tes": 4321,
      "gentleman": 4322,
      "veal": 4323,
      "goods": 4324,
      "circus": 4325,
      "ston": 4326,
      "appropriate": 4327,
      "fiance": 4328,
      "kobe": 4329,
      "ingly": 4330,
      "rocks": 4331,
      "irish": 4332,
      "changing": 4333,
      "haircut": 4334,
      "restroom": 4335,
      "ja": 4336,
      "leftovers": 4337,
      "kat": 4338,
      "==": 4339,
      "pleasure": 4340,
      "aked": 4341,
      "cilantro": 4342,
      "oily": 4343,
      "premi": 4344,
      "eater": 4345,
      "entertaining": 4346,
      "sangria": 4347,
      "gged": 4348,
      "gf": 4349,
      "ign": 4350,
      "stress": 4351,
      "beverage": 4352,
      "acted": 4353,
      "delay": 4354,
      "inviting": 4355,
      "students": 4356,
      "success": 4357,
      "almon": 4358,
      "manner": 4359,
      "sett": 4360,
      "overwhelming": 4361,
      "wasted": 4362,
      "stic": 4363,
      "camp": 4364,
      "brings": 4365,
      "shape": 4366,
      "promised": 4367,
      "texas": 4368,
      "espresso": 4369,
      "skim": 4370,
      "ey": 4371,
      "sir": 4372,
      "rec": 4373,
      "adult": 4374,
      "regul": 4375,
      "draft": 4376,
      "hundred": 4377,
      "ico": 4378,
      "history": 4379,
      "watery": 4380,
      "remode": 4381,
      "joints": 4382,
      "community": 4383,
      "artich": 4384,
      "blown": 4385,
      "ival": 4386,
      "sprink": 4387,
      "benef": 4388,
      "smoothie": 4389,
      "denny": 4390,
      "wers": 4391,
      "reminds": 4392,
      "messed": 4393,
      "flaming": 4394,
      "hollywood": 4395,
      "chandler": 4396,
      "nok": 4397,
      "reco": 4398,
      "heading": 4399,
      "irrit": 4400,
      "hamburger": 4401,
      "gover": 4402,
      "ining": 4403,
      "tourist": 4404,
      "apps": 4405,
      "philly": 4406,
      "croiss": 4407,
      "details": 4408,
      "confirm": 4409,
      "maintenance": 4410,
      "hung": 4411,
      "convin": 4412,
      "embarrass": 4413,
      "mechan": 4414,
      "exciting": 4415,
      "relaxed": 4416,
      "ense": 4417,
      "bowls": 4418,
      "peak": 4419,
      "superb": 4420,
      "emer": 4421,
      "salted": 4422,
      "frequently": 4423,
      "rus": 4424,
      "practically": 4425,
      "careful": 4426,
      "judge": 4427,
      "mignon": 4428,
      "liking": 4429,
      "target": 4430,
      "queen": 4431,
      "ula": 4432,
      "eats": 4433,
      "risotto": 4434,
      "lemonade": 4435,
      "canned": 4436,
      "squee": 4437,
      "maint": 4438,
      "ina": 4439,
      "container": 4440,
      "loaf": 4441,
      "industry": 4442,
      "shar": 4443,
      "occup": 4444,
      "groom": 4445,
      "winter": 4446,
      "blan": 4447,
      "tries": 4448,
      "fluffy": 4449,
      "inch": 4450,
      ",\\": 4451,
      "cru": 4452,
      "discoun": 4453,
      "getic": 4454,
      "noisy": 4455,
      "cater": 4456,
      "hend": 4457,
      "napkins": 4458,
      "pancake": 4459,
      "pow": 4460,
      "reach": 4461,
      "elevators": 4462,
      "annivers": 4463,
      "istro": 4464,
      "strips": 4465,
      "cust": 4466,
      "shoo": 4467,
      "nother": 4468,
      "rob": 4469,
      "rede": 4470,
      "quire": 4471,
      "fitness": 4472,
      "llo": 4473,
      "mesa": 4474,
      "treats": 4475,
      "news": 4476,
      "practice": 4477,
      "bistro": 4478,
      "keeps": 4479,
      "previously": 4480,
      "results": 4481,
      "nowhere": 4482,
      "partner": 4483,
      "tier": 4484,
      "regularly": 4485,
      "genuine": 4486,
      "raid": 4487,
      "bc": 4488,
      "paired": 4489,
      "accommodate": 4490,
      "maintain": 4491,
      "ues": 4492,
      "appealing": 4493,
      "deserve": 4494,
      "father": 4495,
      "colors": 4496,
      "adults": 4497,
      "????": 4498,
      "thankfully": 4499,
      "sey": 4500,
      "appet": 4501,
      "fel": 4502,
      "stum": 4503,
      "bum": 4504,
      "bedroom": 4505,
      "energy": 4506,
      "confusing": 4507,
      "gant": 4508,
      "izo": 4509,
      "believ": 4510,
      "cuz": 4511,
      "teach": 4512,
      "trail": 4513,
      "prepar": 4514,
      "izing": 4515,
      "cabbage": 4516,
      "charac": 4517,
      "intimate": 4518,
      "ahi": 4519,
      "lake": 4520,
      "student": 4521,
      "wheat": 4522,
      "accident": 4523,
      "bitter": 4524,
      "poutine": 4525,
      "spanish": 4526,
      "anniversary": 4527,
      "asks": 4528,
      "azzo": 4529,
      "keys": 4530,
      "cheeseburger": 4531,
      "wondering": 4532,
      "tops": 4533,
      "businesses": 4534,
      "vest": 4535,
      "akes": 4536,
      "entious": 4537,
      "wrote": 4538,
      "mein": 4539,
      "flower": 4540,
      "refilled": 4541,
      "pastry": 4542,
      "horri": 4543,
      "suggestions": 4544,
      "idi": 4545,
      "uster": 4546,
      "indeed": 4547,
      "locked": 4548,
      "cit": 4549,
      "housekeeping": 4550,
      "milks": 4551,
      "houses": 4552,
      "jim": 4553,
      "equally": 4554,
      "'.": 4555,
      "race": 4556,
      "entered": 4557,
      "mber": 4558,
      "matt": 4559,
      "sport": 4560,
      "erk": 4561,
      "create": 4562,
      "cigare": 4563,
      "crit": 4564,
      "carrots": 4565,
      "invol": 4566,
      "snacks": 4567,
      "clients": 4568,
      "songs": 4569,
      "thoroughly": 4570,
      "built": 4571,
      "guarant": 4572,
      "gram": 4573,
      "sharing": 4574,
      "everyday": 4575,
      "cooks": 4576,
      "contract": 4577,
      "hasn": 4578,
      "adequ": 4579,
      "enchilada": 4580,
      "worthy": 4581,
      "cherry": 4582,
      "satisfying": 4583,
      "pit": 4584,
      "acknowled": 4585,
      "thrown": 4586,
      "cancel": 4587,
      "unbeliev": 4588,
      "moon": 4589,
      "angry": 4590,
      "bear": 4591,
      "hurt": 4592,
      "300": 4593,
      "vouch": 4594,
      "arily": 4595,
      "ador": 4596,
      "takeout": 4597,
      "milksha": 4598,
      "demand": 4599,
      "tao": 4600,
      "comped": 4601,
      "blo": 4602,
      "n5": 4603,
      "barbe": 4604,
      "families": 4605,
      "pools": 4606,
      "giri": 4607,
      "freaking": 4608,
      "cajun": 4609,
      "buddy": 4610,
      "described": 4611,
      "theless": 4612,
      "afraid": 4613,
      "chorizo": 4614,
      "anced": 4615,
      "nyc": 4616,
      "meaning": 4617,
      "amenities": 4618,
      "abi": 4619,
      "jalapeno": 4620,
      "bust": 4621,
      "heads": 4622,
      "planned": 4623,
      "shi": 4624,
      "erson": 4625,
      "stern": 4626,
      "thir": 4627,
      "azz": 4628,
      "movies": 4629,
      "cutting": 4630,
      "sesame": 4631,
      "sooo": 4632,
      "rum": 4633,
      "seared": 4634,
      "assort": 4635,
      "pretentious": 4636,
      "ith": 4637,
      "entering": 4638,
      "attrac": 4639,
      "assured": 4640,
      "beverages": 4641,
      "aint": 4642,
      "appears": 4643,
      "animal": 4644,
      "dates": 4645,
      "zone": 4646,
      "custard": 4647,
      "mais": 4648,
      "pants": 4649,
      "nigiri": 4650,
      "frosting": 4651,
      "comparison": 4652,
      "kara": 4653,
      "darn": 4654,
      "exhi": 4655,
      "trips": 4656,
      "stocked": 4657,
      "china": 4658,
      "tiv": 4659,
      "addic": 4660,
      "accompan": 4661,
      "perfor": 4662,
      "qual": 4663,
      "alternative": 4664,
      "runs": 4665,
      "aza": 4666,
      "waitstaff": 4667,
      "downhill": 4668,
      "filthy": 4669,
      "luxor": 4670,
      "rasp": 4671,
      "appetizing": 4672,
      "inn": 4673,
      "ague": 4674,
      "rem": 4675,
      "xim": 4676,
      "vision": 4677,
      "-$": 4678,
      "easier": 4679,
      "fusion": 4680,
      "anas": 4681,
      "aging": 4682,
      "grees": 4683,
      "cam": 4684,
      "conside": 4685,
      "downside": 4686,
      "teas": 4687,
      "tie": 4688,
      "concert": 4689,
      "considered": 4690,
      "cast": 4691,
      "holy": 4692,
      "garbage": 4693,
      "scoop": 4694,
      "shortly": 4695,
      "suggestion": 4696,
      "ups": 4697,
      "chetta": 4698,
      "mming": 4699,
      "managers": 4700,
      "initially": 4701,
      "clue": 4702,
      "kni": 4703,
      "theat": 4704,
      "tooth": 4705,
      "costco": 4706,
      "microwave": 4707,
      "mare": 4708,
      "replied": 4709,
      "chee": 4710,
      "inedible": 4711,
      "palazzo": 4712,
      "lee": 4713,
      "entially": 4714,
      "volu": 4715,
      "cramped": 4716,
      "earth": 4717,
      "preferred": 4718,
      "majority": 4719,
      "approach": 4720,
      "strawberries": 4721,
      "cares": 4722,
      "remove": 4723,
      "quantity": 4724,
      "terrific": 4725,
      "deserves": 4726,
      "cis": 4727,
      "convention": 4728,
      "snap": 4729,
      "rami": 4730,
      "tas": 4731,
      "hire": 4732,
      "regulars": 4733,
      "flav": 4734,
      "burned": 4735,
      "alle": 4736,
      "buzz": 4737,
      "honor": 4738,
      "whipped": 4739,
      "jewel": 4740,
      "nnext": 4741,
      "sink": 4742,
      "vd": 4743,
      "omelette": 4744,
      "tack": 4745,
      "advertised": 4746,
      "!),": 4747,
      "mimo": 4748,
      "idiot": 4749,
      "purpose": 4750,
      "handful": 4751,
      "yoga": 4752,
      "donut": 4753,
      "spoiled": 4754,
      "stellar": 4755,
      "former": 4756,
      "glaz": 4757,
      "nhe": 4758,
      "jerk": 4759,
      "parad": 4760,
      "slot": 4761,
      "ilities": 4762,
      "nwith": 4763,
      "seed": 4764,
      "delightful": 4765,
      "info": 4766,
      "irt": 4767,
      "neck": 4768,
      "entirely": 4769,
      "micha": 4770,
      "knock": 4771,
      "screaming": 4772,
      "inary": 4773,
      "talent": 4774,
      "ole": 4775,
      "ids": 4776,
      "gratu": 4777,
      "naan": 4778,
      "blend": 4779,
      "cleanliness": 4780,
      "nich": 4781,
      "semi": 4782,
      "u00e8s": 4783,
      "encore": 4784,
      "pint": 4785,
      "performan": 4786,
      "pumpkin": 4787,
      "chim": 4788,
      "ux": 4789,
      "njust": 4790,
      "penny": 4791,
      "?!?!": 4792,
      "loyal": 4793,
      "desper": 4794,
      "era": 4795,
      "plaza": 4796,
      "smart": 4797,
      "nshe": 4798,
      "steal": 4799,
      "initial": 4800,
      "swee": 4801,
      "coles": 4802,
      "letting": 4803,
      "unacceptable": 4804,
      "xious": 4805,
      "adjust": 4806,
      "appl": 4807,
      "presc": 4808,
      "xture": 4809,
      "minor": 4810,
      "flamingo": 4811,
      "code": 4812,
      "sible": 4813,
      "brule": 4814,
      "punch": 4815,
      "bub": 4816,
      "noc": 4817,
      "states": 4818,
      "coleslaw": 4819,
      "spill": 4820,
      "nhere": 4821,
      "assuming": 4822,
      "ium": 4823,
      "watered": 4824,
      "sages": 4825,
      "hassle": 4826,
      "required": 4827,
      "meatball": 4828,
      "edge": 4829,
      "stal": 4830,
      "repeated": 4831,
      "airy": 4832,
      "tequil": 4833,
      "dor": 4834,
      "sco": 4835,
      "\\\"\\": 4836,
      "checks": 4837,
      "swear": 4838,
      "tout": 4839,
      "henderson": 4840,
      "approached": 4841,
      "sets": 4842,
      "flash": 4843,
      "comments": 4844,
      "dump": 4845,
      "flour": 4846,
      "28": 4847,
      "wheel": 4848,
      "skills": 4849,
      "cier": 4850,
      "afterwards": 4851,
      "teeth": 4852,
      "pastrami": 4853,
      "animals": 4854,
      "spir": 4855,
      "boss": 4856,
      "smash": 4857,
      "gamble": 4858,
      "poker": 4859,
      "tall": 4860,
      "kee": 4861,
      "blame": 4862,
      "acknowledge": 4863,
      "quote": 4864,
      "lted": 4865,
      "tos": 4866,
      "mcdonald": 4867,
      "personable": 4868,
      "samples": 4869,
      "weekday": 4870,
      "tourists": 4871,
      "clam": 4872,
      "cheeses": 4873,
      "america": 4874,
      "yelling": 4875,
      "everytime": 4876,
      "unit": 4877,
      "premium": 4878,
      "tele": 4879,
      "july": 4880,
      "wraps": 4881,
      "settled": 4882,
      "macaroni": 4883,
      "adequate": 4884,
      "shakes": 4885,
      "paradise": 4886,
      "stations": 4887,
      "description": 4888,
      "euro": 4889,
      "creep": 4890,
      "nwill": 4891,
      "suff": 4892,
      "grade": 4893,
      "terribly": 4894,
      "degrees": 4895,
      "arriving": 4896,
      "politan": 4897,
      "wallet": 4898,
      "nonce": 4899,
      "stands": 4900,
      "currently": 4901,
      "upgraded": 4902,
      "fif": 4903,
      "national": 4904,
      "agna": 4905,
      "messy": 4906,
      "couch": 4907,
      "peach": 4908,
      "falling": 4909,
      "otic": 4910,
      "happening": 4911,
      "celebrate": 4912,
      "mike": 4913,
      "nightmare": 4914,
      "shady": 4915,
      "artichoke": 4916,
      "incre": 4917,
      "faster": 4918,
      "poured": 4919,
      "personality": 4920,
      "indoor": 4921,
      "western": 4922,
      "stopping": 4923,
      "waters": 4924,
      "checkout": 4925,
      "crowds": 4926,
      "leng": 4927,
      "forgotten": 4928,
      "activ": 4929,
      "vill": 4930,
      "500": 4931,
      "lau": 4932,
      "npros": 4933,
      "ased": 4934,
      "holding": 4935,
      "mitted": 4936,
      "ean": 4937,
      "silverware": 4938,
      "tang": 4939,
      "program": 4940,
      "countered": 4941,
      "chatting": 4942,
      "nlast": 4943,
      "hat": 4944,
      "page": 4945,
      "poison": 4946,
      "clams": 4947,
      "grace": 4948,
      "seven": 4949,
      "designed": 4950,
      "quoted": 4951,
      "ians": 4952,
      "pile": 4953,
      "spray": 4954,
      "clientele": 4955,
      "hen": 4956,
      "buttery": 4957,
      "ises": 4958,
      "cran": 4959,
      "steep": 4960,
      "younger": 4961,
      "mediter": 4962,
      "rap": 4963,
      "stad": 4964,
      "payment": 4965,
      "carte": 4966,
      "150": 4967,
      "burn": 4968,
      "washed": 4969,
      "inspired": 4970,
      "mani": 4971,
      "balcon": 4972,
      "report": 4973,
      "updated": 4974,
      "aved": 4975,
      "frustrating": 4976,
      "forth": 4977,
      "ripped": 4978,
      "jan": 4979,
      "vels": 4980,
      "magic": 4981,
      "suites": 4982,
      "corned": 4983,
      "gnoc": 4984,
      "ox": 4985,
      "yr": 4986,
      "lian": 4987,
      "grad": 4988,
      "lasagna": 4989,
      "teria": 4990,
      "timely": 4991,
      "dece": 4992,
      "appetite": 4993,
      "encountered": 4994,
      "***": 4995,
      "dream": 4996,
      "va": 4997,
      "gratuity": 4998,
      "uc": 4999,
      "retail": 5000,
      "pear": 5001,
      "sampler": 5002,
      "warranty": 5003,
      "audience": 5004,
      "lized": 5005,
      "michael": 5006,
      "outrage": 5007,
      "shu": 5008,
      "shoe": 5009,
      "phones": 5010,
      "bands": 5011,
      "mirage": 5012,
      "bruschetta": 5013,
      "workout": 5014,
      "rac": 5015,
      "score": 5016,
      "thumbs": 5017,
      "plane": 5018,
      "master": 5019,
      "consisted": 5020,
      "stir": 5021,
      "dirt": 5022,
      "macy": 5023,
      "karaoke": 5024,
      "raspberry": 5025,
      "lugg": 5026,
      "competent": 5027,
      "posite": 5028,
      "flying": 5029,
      "2014": 5030,
      "atest": 5031,
      "monte": 5032,
      "marked": 5033,
      "certific": 5034,
      "apologetic": 5035,
      "passion": 5036,
      "luster": 5037,
      "avid": 5038,
      "cious": 5039,
      "signific": 5040,
      "ranean": 5041,
      "fremont": 5042,
      "camer": 5043,
      "puff": 5044,
      "fala": 5045,
      "conference": 5046,
      "bran": 5047,
      "yay": 5048,
      "shel": 5049,
      "frankly": 5050,
      "eastern": 5051,
      "dentist": 5052,
      "cture": 5053,
      "tattoo": 5054,
      "nightclub": 5055,
      "entry": 5056,
      "sweat": 5057,
      "grow": 5058,
      "breath": 5059,
      "u00fc": 5060,
      "enthus": 5061,
      "gni": 5062,
      "kers": 5063,
      "trained": 5064,
      "grits": 5065,
      "enthusi": 5066,
      "26": 5067,
      "offic": 5068,
      "nmaybe": 5069,
      "bour": 5070,
      "uary": 5071,
      "construction": 5072,
      "seve": 5073,
      "moj": 5074,
      "direction": 5075,
      "tequila": 5076,
      "explo": 5077,
      "mediterranean": 5078,
      "lean": 5079,
      "opposite": 5080,
      "greatest": 5081,
      "encour": 5082,
      "redu": 5083,
      "taxi": 5084,
      "bottled": 5085,
      "everybody": 5086,
      "breads": 5087,
      "technic": 5088,
      "minimal": 5089,
      "walks": 5090,
      "metal": 5091,
      "therap": 5092,
      "fajitas": 5093,
      "u00a3": 5094,
      "bility": 5095,
      "iles": 5096,
      "dancers": 5097,
      "twist": 5098,
      ";)": 5099,
      "oud": 5100,
      "som": 5101,
      "estim": 5102,
      "shor": 5103,
      "phys": 5104,
      "contacted": 5105,
      "unlimited": 5106,
      "grew": 5107,
      "vend": 5108,
      "bummer": 5109,
      "twenty": 5110,
      "screens": 5111,
      "_photos": 5112,
      "ured": 5113,
      "theatre": 5114,
      "faces": 5115,
      "substit": 5116,
      "instructor": 5117,
      "lover": 5118,
      "marinara": 5119,
      "enos": 5120,
      "diam": 5121,
      "atory": 5122,
      "ghet": 5123,
      "2013": 5124,
      "passing": 5125,
      "regarding": 5126,
      "brid": 5127,
      "ali": 5128,
      "u00e9ta": 5129,
      "comparable": 5130,
      "generic": 5131,
      "claimed": 5132,
      "ctic": 5133,
      "brulee": 5134,
      "zi": 5135,
      "cade": 5136,
      "almond": 5137,
      "calories": 5138,
      "aus": 5139,
      "dinners": 5140,
      "wit": 5141,
      "aspect": 5142,
      "beautifully": 5143,
      "27": 5144,
      "4th": 5145,
      "text": 5146,
      "insisted": 5147,
      "river": 5148,
      "culinary": 5149,
      "flowers": 5150,
      "stew": 5151,
      "attended": 5152,
      "herself": 5153,
      "cosmopolitan": 5154,
      "29": 5155,
      "tong": 5156,
      "background": 5157,
      "23": 5158,
      "unhappy": 5159,
      "grain": 5160,
      "wished": 5161,
      "peas": 5162,
      "depend": 5163,
      "stat": 5164,
      "iring": 5165,
      "palms": 5166,
      "overwhelmed": 5167,
      "viche": 5168,
      "zoo": 5169,
      "refri": 5170,
      "raised": 5171,
      "replacement": 5172,
      "dden": 5173,
      "thous": 5174,
      "soap": 5175,
      "whatso": 5176,
      "stret": 5177,
      "tank": 5178,
      "cleaner": 5179,
      "rubbery": 5180,
      "lich": 5181,
      "levels": 5182,
      "destination": 5183,
      "chains": 5184,
      "cheape": 5185,
      "root": 5186,
      "balsam": 5187,
      "nsince": 5188,
      "tucked": 5189,
      "xs": 5190,
      "stun": 5191,
      "accur": 5192,
      "marinated": 5193,
      "explan": 5194,
      "ghetto": 5195,
      "cheapest": 5196,
      "roach": 5197,
      "finishing": 5198,
      "rates": 5199,
      "recall": 5200,
      "aky": 5201,
      "nfinally": 5202,
      "unfriendly": 5203,
      "bisque": 5204,
      "!)\\": 5205,
      "ules": 5206,
      "redeem": 5207,
      "dealing": 5208,
      "thousand": 5209,
      "rout": 5210,
      "therefore": 5211,
      "tots": 5212,
      "tomor": 5213,
      "weekly": 5214,
      "mcdonalds": 5215,
      "unable": 5216,
      "worried": 5217,
      "recogni": 5218,
      "whatsoever": 5219,
      "tomorrow": 5220,
      "loose": 5221,
      "chowder": 5222,
      "mojito": 5223,
      "nwould": 5224,
      "u00f1": 5225,
      "helps": 5226,
      "quarter": 5227,
      "stadium": 5228,
      "tim": 5229,
      "searching": 5230,
      "fig": 5231,
      "lis": 5232,
      "pun": 5233,
      "thrilled": 5234,
      "ades": 5235,
      "church": 5236,
      "legit": 5237,
      "million": 5238,
      "weed": 5239,
      "booking": 5240,
      "braz": 5241,
      "brush": 5242,
      "visi": 5243,
      "understanding": 5244,
      "jump": 5245,
      "panda": 5246,
      "jud": 5247,
      "soul": 5248,
      "gnocchi": 5249,
      "balsamic": 5250,
      "tropic": 5251,
      "risk": 5252,
      "bargain": 5253,
      "advertise": 5254,
      "receptionist": 5255,
      "resid": 5256,
      "ricot": 5257,
      "attractive": 5258,
      "southwest": 5259,
      "neverything": 5260,
      "sudden": 5261,
      "blocks": 5262,
      "nar": 5263,
      "ances": 5264,
      "arts": 5265,
      "drank": 5266,
      "sigh": 5267,
      "plenti": 5268,
      "nish": 5269,
      "tum": 5270,
      "chal": 5271,
      "handled": 5272,
      "queso": 5273,
      "sheets": 5274,
      "basis": 5275,
      "clerk": 5276,
      "balcony": 5277,
      "remark": 5278,
      "dresses": 5279,
      "slam": 5280,
      "cafeteria": 5281,
      "worn": 5282,
      "acknowledged": 5283,
      "scam": 5284,
      "bowling": 5285,
      "sexy": 5286,
      "plentiful": 5287,
      "squash": 5288,
      "nc": 5289,
      "pip": 5290,
      "10pm": 5291,
      "zuc": 5292,
      "occupied": 5293,
      "slots": 5294,
      "velo": 5295,
      "ugly": 5296,
      "drun": 5297,
      "gency": 5298,
      "assumed": 5299,
      "katsu": 5300,
      "knife": 5301,
      "nvery": 5302,
      "throwing": 5303,
      "reput": 5304,
      "terminal": 5305,
      "chunk": 5306,
      "exchange": 5307,
      "acts": 5308,
      "village": 5309,
      "cri": 5310,
      "truth": 5311,
      "gil": 5312,
      "uh": 5313,
      "subs": 5314,
      "stepped": 5315,
      "booze": 5316,
      "7pm": 5317,
      "chini": 5318,
      "hallway": 5319,
      "passes": 5320,
      "attached": 5321,
      "puts": 5322,
      "tone": 5323,
      "bee": 5324,
      "fuse": 5325,
      "protein": 5326,
      "hits": 5327,
      "nanother": 5328,
      "junk": 5329,
      "cod": 5330,
      "drunken": 5331,
      "wag": 5332,
      "breaded": 5333,
      "dealership": 5334,
      "scrambled": 5335,
      "carnit": 5336,
      "biz_photos": 5337,
      "refriger": 5338,
      "parti": 5339,
      "parked": 5340,
      "leather": 5341,
      "german": 5342,
      "luggage": 5343,
      "fab": 5344,
      "coworkers": 5345,
      "falafel": 5346,
      "ros": 5347,
      "human": 5348,
      "distr": 5349,
      "swimming": 5350,
      "supervis": 5351,
      "pushed": 5352,
      "riot": 5353,
      "domin": 5354,
      "nunfortunately": 5355,
      "happily": 5356,
      "lightly": 5357,
      "obno": 5358,
      "fired": 5359,
      "incident": 5360,
      "execu": 5361,
      "suspect": 5362,
      "jeans": 5363,
      "effect": 5364,
      "lle": 5365,
      "beha": 5366,
      "cole": 5367,
      "feta": 5368,
      "ounce": 5369,
      "usive": 5370,
      "prin": 5371,
      "benefit": 5372,
      "ghter": 5373,
      "damage": 5374,
      "challenge": 5375,
      "noted": 5376,
      "overrated": 5377,
      "hhhh": 5378,
      "croissant": 5379,
      "55": 5380,
      "jar": 5381,
      "ormous": 5382,
      "active": 5383,
      "ceviche": 5384,
      "improved": 5385,
      "blueberry": 5386,
      "tossed": 5387,
      "plies": 5388,
      "frustrated": 5389,
      "funky": 5390,
      "blt": 5391,
      "communication": 5392,
      "growing": 5393,
      "'\\": 5394,
      "eli": 5395,
      "invest": 5396,
      "fold": 5397,
      "mass": 5398,
      "competition": 5399,
      "atives": 5400,
      "pillows": 5401,
      "represent": 5402,
      "lil": 5403,
      "lease": 5404,
      "establishments": 5405,
      "connect": 5406,
      "dans": 5407,
      "coll": 5408,
      "langu": 5409,
      "ndo": 5410,
      "extend": 5411,
      "np": 5412,
      "fishy": 5413,
      "nyes": 5414,
      "sampled": 5415,
      "character": 5416,
      "lon": 5417,
      "orient": 5418,
      "brick": 5419,
      "lately": 5420,
      "lying": 5421,
      "fountains": 5422,
      "nose": 5423,
      "rolling": 5424,
      "dying": 5425,
      "phar": 5426,
      "caesars": 5427,
      "lukewarm": 5428,
      "charming": 5429,
      "sweetness": 5430,
      ")...": 5431,
      "ggl": 5432,
      "auch": 5433,
      "ample": 5434,
      "indul": 5435,
      "fuck": 5436,
      "traveling": 5437,
      "ization": 5438,
      "festival": 5439,
      "explaining": 5440,
      "anticip": 5441,
      "utter": 5442,
      "require": 5443,
      "dun": 5444,
      "gress": 5445,
      "charm": 5446,
      "metro": 5447,
      "responded": 5448,
      "concern": 5449,
      "connected": 5450,
      "confirmed": 5451,
      "marquee": 5452,
      "conveniently": 5453,
      "terior": 5454,
      "badly": 5455,
      "starters": 5456,
      "spic": 5457,
      "hoped": 5458,
      "mongo": 5459,
      "starter": 5460,
      "boiled": 5461,
      "grown": 5462,
      "seasonal": 5463,
      "carnitas": 5464,
      "utto": 5465,
      "zucchini": 5466,
      "nhttp": 5467,
      "poisoning": 5468,
      "locally": 5469,
      "sne": 5470,
      "blon": 5471,
      "clim": 5472,
      "alas": 5473,
      "tee": 5474,
      "supposedly": 5475,
      "placing": 5476,
      "guard": 5477,
      "bbing": 5478,
      "tempor": 5479,
      "towel": 5480,
      "marks": 5481,
      "toward": 5482,
      "necessarily": 5483,
      "liquid": 5484,
      "panini": 5485,
      "screwed": 5486,
      "eyebrow": 5487,
      "nicht": 5488,
      "sip": 5489,
      "pressed": 5490,
      "promise": 5491,
      "ales": 5492,
      "versity": 5493,
      "65": 5494,
      "peel": 5495,
      "plans": 5496,
      "ease": 5497,
      "tree": 5498,
      "amazingly": 5499,
      "itary": 5500,
      ",,": 5501,
      "earned": 5502,
      "itive": 5503,
      "record": 5504,
      "lam": 5505,
      "nug": 5506,
      "ratio": 5507,
      "cooler": 5508,
      "statement": 5509,
      "dous": 5510,
      "uu": 5511,
      "pace": 5512,
      "sion": 5513,
      "couples": 5514,
      "mahi": 5515,
      "quaint": 5516,
      "improvement": 5517,
      "degree": 5518,
      "brownie": 5519,
      "bachi": 5520,
      "inis": 5521,
      "unpleasant": 5522,
      "apoint": 5523,
      "winner": 5524,
      "biscuit": 5525,
      "diss": 5526,
      "hilton": 5527,
      "lesson": 5528,
      "cape": 5529,
      "drain": 5530,
      "rudely": 5531,
      "lacks": 5532,
      "ignore": 5533,
      "bugs": 5534,
      "hipster": 5535,
      "medical": 5536,
      "function": 5537,
      "lb": 5538,
      "fet": 5539,
      "trade": 5540,
      "nlet": 5541,
      "pocket": 5542,
      "theirs": 5543,
      "washing": 5544,
      "companies": 5545,
      "wis": 5546,
      "rules": 5547,
      "listening": 5548,
      "32": 5549,
      "killer": 5550,
      "disaster": 5551,
      "nonetheless": 5552,
      ":-)": 5553,
      "highlights": 5554,
      "artist": 5555,
      "diamond": 5556,
      "admission": 5557,
      "sometime": 5558,
      "maple": 5559,
      "skinny": 5560,
      "mongolian": 5561,
      "shout": 5562,
      "trap": 5563,
      "setup": 5564,
      "ilian": 5565,
      "cate": 5566,
      "sar": 5567,
      "educ": 5568,
      "loss": 5569,
      "kal": 5570,
      "arro": 5571,
      "dumb": 5572,
      "pon": 5573,
      "oyster": 5574,
      "urge": 5575,
      "fyi": 5576,
      "gordon": 5577,
      "roy": 5578,
      "created": 5579,
      "file": 5580,
      "aka": 5581,
      "6pm": 5582,
      "tz": 5583,
      "melon": 5584,
      "nick": 5585,
      "fits": 5586,
      "gee": 5587,
      "somebody": 5588,
      "falls": 5589,
      "luxury": 5590,
      "neven": 5591,
      "bouncers": 5592,
      "ciutto": 5593,
      "cleared": 5594,
      "popped": 5595,
      "laughing": 5596,
      "icate": 5597,
      "march": 5598,
      "alfre": 5599,
      "tipped": 5600,
      "newer": 5601,
      "surrounding": 5602,
      "impe": 5603,
      "singing": 5604,
      "wicked": 5605,
      "debit": 5606,
      "facial": 5607,
      "chops": 5608,
      "cousin": 5609,
      "hence": 5610,
      "involved": 5611,
      "thinks": 5612,
      "remind": 5613,
      "volume": 5614,
      "bare": 5615,
      "apples": 5616,
      "2012": 5617,
      "facilities": 5618,
      "micro": 5619,
      "fon": 5620,
      "research": 5621,
      "layer": 5622,
      "urban": 5623,
      "miser": 5624,
      "?).": 5625,
      "roller": 5626,
      "accompanied": 5627,
      "remote": 5628,
      "pecan": 5629,
      "essentially": 5630,
      "holes": 5631,
      "requests": 5632,
      "bie": 5633,
      "ii": 5634,
      "brain": 5635,
      "valu": 5636,
      "hrs": 5637,
      "politely": 5638,
      "scary": 5639,
      "pep": 5640,
      "slowly": 5641,
      "colo": 5642,
      "appointments": 5643,
      "rah": 5644,
      "francis": 5645,
      "performance": 5646,
      "disappeared": 5647,
      "caring": 5648,
      "libr": 5649,
      "unusual": 5650,
      "oma": 5651,
      "fruits": 5652,
      "econ": 5653,
      "alter": 5654,
      "tiram": 5655,
      "avec": 5656,
      "dropping": 5657,
      "bored": 5658,
      "\\\".\\": 5659,
      "cigarette": 5660,
      "reviewer": 5661,
      "sundays": 5662,
      "bananas": 5663,
      "alfredo": 5664,
      "commer": 5665,
      "jewelry": 5666,
      "grette": 5667,
      "prosciutto": 5668,
      "declined": 5669,
      "touched": 5670,
      "belong": 5671,
      "players": 5672,
      "ndefinitely": 5673,
      "collection": 5674,
      "unbelievable": 5675,
      "logy": 5676,
      "concier": 5677,
      "smoky": 5678,
      "pitcher": 5679,
      "arrange": 5680,
      "coat": 5681,
      "explanation": 5682,
      "gle": 5683,
      "firm": 5684,
      "prix": 5685,
      "vacu": 5686,
      "chances": 5687,
      "tongue": 5688,
      "pickle": 5689,
      "limit": 5690,
      "force": 5691,
      "jen": 5692,
      "understood": 5693,
      "smoothies": 5694,
      "poo": 5695,
      "rell": 5696,
      ".......": 5697,
      "wonton": 5698,
      "runny": 5699,
      "strike": 5700,
      "smokey": 5701,
      "attempted": 5702,
      "hospit": 5703,
      "ported": 5704,
      "impecc": 5705,
      "pics": 5706,
      "isu": 5707,
      "extr": 5708,
      "crave": 5709,
      "plat": 5710,
      "bouti": 5711,
      "border": 5712,
      "wake": 5713,
      "curtain": 5714,
      "liber": 5715,
      "advised": 5716,
      "admitted": 5717,
      "mob": 5718,
      "sloppy": 5719,
      "shall": 5720,
      "condiments": 5721,
      "deposit": 5722,
      "bouncer": 5723,
      "wasabi": 5724,
      "assortment": 5725,
      "language": 5726,
      "outrageous": 5727,
      "rust": 5728,
      "outdated": 5729,
      "shift": 5730,
      "8pm": 5731,
      "clin": 5732,
      "diag": 5733,
      "hooked": 5734,
      "nme": 5735,
      "heav": 5736,
      "gran": 5737,
      "gery": 5738,
      "braised": 5739,
      "atically": 5740,
      "hearty": 5741,
      "companion": 5742,
      "peace": 5743,
      "parm": 5744,
      "exit": 5745,
      "soaked": 5746,
      "pickled": 5747,
      "mur": 5748,
      "resol": 5749,
      "vintage": 5750,
      "recipe": 5751,
      "berg": 5752,
      "hookah": 5753,
      "concierge": 5754,
      "topus": 5755,
      "flatbread": 5756,
      "paperwork": 5757,
      "distract": 5758,
      "grub": 5759,
      "eria": 5760,
      "cob": 5761,
      "owns": 5762,
      "couches": 5763,
      "shaved": 5764,
      "exhibit": 5765,
      "ngo": 5766,
      "sher": 5767,
      "bitch": 5768,
      "scott": 5769,
      "obnoxious": 5770,
      "bird": 5771,
      "underwhelming": 5772,
      "certificate": 5773,
      "9pm": 5774,
      "laughed": 5775,
      "inc": 5776,
      "royal": 5777,
      "nervous": 5778,
      "alcoholic": 5779,
      "expand": 5780,
      "ata": 5781,
      "todd": 5782,
      "shoulder": 5783,
      "vey": 5784,
      "thanksgiving": 5785,
      "atured": 5786,
      "hated": 5787,
      "treasure": 5788,
      "barbecue": 5789,
      "lous": 5790,
      "amazed": 5791,
      "blowing": 5792,
      "receiving": 5793,
      "tiramisu": 5794,
      "mistakes": 5795,
      "scared": 5796,
      "acle": 5797,
      "mold": 5798,
      "breading": 5799,
      "dies": 5800,
      "wire": 5801,
      "eager": 5802,
      "alli": 5803,
      "rail": 5804,
      "brie": 5805,
      "attendant": 5806,
      "za": 5807,
      "excus": 5808,
      "memories": 5809,
      "hut": 5810,
      "foodie": 5811,
      "brews": 5812,
      "silly": 5813,
      "grac": 5814,
      "cared": 5815,
      "bills": 5816,
      "balanced": 5817,
      "pee": 5818,
      "spare": 5819,
      "stickers": 5820,
      "u00fcr": 5821,
      "repairs": 5822,
      "mexico": 5823,
      "occasionally": 5824,
      "tit": 5825,
      "amame": 5826,
      "octopus": 5827,
      "plum": 5828,
      "watering": 5829,
      "rainbow": 5830,
      "lackluster": 5831,
      "stumbled": 5832,
      "pau": 5833,
      "join": 5834,
      "girlfriends": 5835,
      "guessing": 5836,
      "stating": 5837,
      "features": 5838,
      "hitting": 5839,
      "nsome": 5840,
      "clock": 5841,
      "gic": 5842,
      "ideal": 5843,
      "nicest": 5844,
      "path": 5845,
      "jalape": 5846,
      "nbottom": 5847,
      "caused": 5848,
      "fortunately": 5849,
      "unfortunate": 5850,
      "rese": 5851,
      "u00f6": 5852,
      "transfer": 5853,
      "voucher": 5854,
      "tacky": 5855,
      "death": 5856,
      "doctors": 5857,
      "blonde": 5858,
      "inspe": 5859,
      "rule": 5860,
      "inven": 5861,
      "smith": 5862,
      "associate": 5863,
      "fai": 5864,
      "irritated": 5865,
      "staring": 5866,
      "blew": 5867,
      "expert": 5868,
      "!?": 5869,
      "knot": 5870,
      "aya": 5871,
      "pathetic": 5872,
      "length": 5873,
      "vacuum": 5874,
      "facing": 5875,
      "introduced": 5876,
      "whoever": 5877,
      "nav": 5878,
      "pier": 5879,
      "butt": 5880,
      "milkshake": 5881,
      "atown": 5882,
      "featured": 5883,
      "gres": 5884,
      "greeting": 5885,
      "lore": 5886,
      "nous": 5887,
      "nsecond": 5888,
      "themed": 5889,
      "motel": 5890,
      "campus": 5891,
      "********": 5892,
      "crawfish": 5893,
      "shock": 5894,
      "juices": 5895,
      "stains": 5896,
      "electron": 5897,
      "hew": 5898,
      "ignor": 5899,
      "staple": 5900,
      "sorts": 5901,
      "gif": 5902,
      "expl": 5903,
      "lousy": 5904,
      "bien": 5905,
      "adds": 5906,
      "freezer": 5907,
      "?!?": 5908,
      "swiss": 5909,
      "douche": 5910,
      "raved": 5911,
      "anc": 5912,
      "saute": 5913,
      "button": 5914,
      "adventure": 5915,
      "yea": 5916,
      "turning": 5917,
      "inconvenience": 5918,
      "welcomed": 5919,
      "icky": 5920,
      "blind": 5921,
      "beauty": 5922,
      "flavour": 5923,
      "asu": 5924,
      "obli": 5925,
      "trio": 5926,
      "argue": 5927,
      "mater": 5928,
      "knowled": 5929,
      "rab": 5930,
      "kudos": 5931,
      "stops": 5932,
      "steps": 5933,
      "gilbert": 5934,
      "chio": 5935,
      "snob": 5936,
      "painting": 5937,
      "pushy": 5938,
      "stays": 5939,
      "catfish": 5940,
      "painted": 5941,
      "jour": 5942,
      "kicked": 5943,
      "fucking": 5944,
      "sunda": 5945,
      "limp": 5946,
      "overpower": 5947,
      "chinatown": 5948,
      "vinai": 5949,
      "aioli": 5950,
      "edamame": 5951,
      "complement": 5952,
      "arms": 5953,
      "web": 5954,
      "uptown": 5955,
      "geor": 5956,
      "tai": 5957,
      "inconsistent": 5958,
      "phi": 5959,
      "exterior": 5960,
      "gable": 5961,
      "yellowtail": 5962,
      "leading": 5963,
      "temporary": 5964,
      "5pm": 5965,
      "costum": 5966,
      "outlet": 5967,
      "labor": 5968,
      "lump": 5969,
      "tenders": 5970,
      "eight": 5971,
      "cornbread": 5972,
      "una": 5973,
      "nom": 5974,
      "vior": 5975,
      "\\\"...": 5976,
      "cave": 5977,
      "u00e9s": 5978,
      "rides": 5979,
      "position": 5980,
      "frites": 5981,
      "related": 5982,
      "appearance": 5983,
      "merchand": 5984,
      "munch": 5985,
      "ration": 5986,
      "stare": 5987,
      "occur": 5988,
      "photograp": 5989,
      "knowledgable": 5990,
      "vinaigrette": 5991,
      "toler": 5992,
      "ening": 5993,
      "impeccable": 5994,
      "fal": 5995,
      "sodas": 5996,
      "underwhelmed": 5997,
      "understaffed": 5998,
      "superior": 5999,
      "neighbors": 6000,
      "district": 6001,
      "triple": 6002,
      "jimmy": 6003,
      "franch": 6004,
      "rewards": 6005,
      "epic": 6006,
      "sketch": 6007,
      "justify": 6008,
      "cure": 6009,
      "hide": 6010,
      "grat": 6011,
      "boot": 6012,
      "commercial": 6013,
      "fus": 6014,
      "30am": 6015,
      "cel": 6016,
      "arug": 6017,
      "grape": 6018,
      "fashioned": 6019,
      "ius": 6020,
      "diego": 6021,
      "lovers": 6022,
      "sier": 6023,
      "brewery": 6024,
      "opens": 6025,
      "whiskey": 6026,
      "creepy": 6027,
      "dear": 6028,
      "david": 6029,
      "alley": 6030,
      "meatloaf": 6031,
      "spark": 6032,
      "branch": 6033,
      "agent": 6034,
      "gressive": 6035,
      "nis": 6036,
      "mage": 6037,
      "vada": 6038,
      "~~": 6039,
      "ensure": 6040,
      "ake": 6041,
      "esdays": 6042,
      "concerns": 6043,
      "skept": 6044,
      "cuban": 6045,
      "ratings": 6046,
      "compens": 6047,
      "flights": 6048,
      "bucket": 6049,
      "u00e9cor": 6050,
      "calm": 6051,
      "hers": 6052,
      "delux": 6053,
      "curious": 6054,
      "torn": 6055,
      "hostesses": 6056,
      "nlike": 6057,
      "nonly": 6058,
      "resto": 6059,
      "idence": 6060,
      "ruin": 6061,
      "$.": 6062,
      "numbers": 6063,
      "bones": 6064,
      "fen": 6065,
      "rach": 6066,
      "powder": 6067,
      "fond": 6068,
      "vio": 6069,
      "mirror": 6070,
      "shitty": 6071,
      "suppor": 6072,
      "embarrassed": 6073,
      "symp": 6074,
      "sorbet": 6075,
      "attack": 6076,
      "cheer": 6077,
      "memory": 6078,
      "gang": 6079,
      "pum": 6080,
      "attract": 6081,
      "assistant": 6082,
      "clusion": 6083,
      "rag": 6084,
      "gig": 6085,
      "camel": 6086,
      "labe": 6087,
      "engine": 6088,
      "coworker": 6089,
      "pregn": 6090,
      "yelled": 6091,
      "awn": 6092,
      "selected": 6093,
      "police": 6094,
      "culture": 6095,
      "lipino": 6096,
      "skewers": 6097,
      "iphone": 6098,
      "importantly": 6099,
      "contr": 6100,
      "hangover": 6101,
      "u00e9tait": 6102,
      "bian": 6103,
      "shoot": 6104,
      "invited": 6105,
      "phx": 6106,
      "accurate": 6107,
      "ril": 6108,
      "blvd": 6109,
      "interrup": 6110,
      "reputation": 6111,
      "sils": 6112,
      "acting": 6113,
      "died": 6114,
      "emergency": 6115,
      "guide": 6116,
      "paste": 6117,
      "purchasing": 6118,
      "hawaii": 6119,
      "fc": 6120,
      "refuse": 6121,
      "shelf": 6122,
      "bagu": 6123,
      "kale": 6124,
      "itions": 6125,
      "halfway": 6126,
      "gyros": 6127,
      "gging": 6128,
      "adorable": 6129,
      "resem": 6130,
      "packaged": 6131,
      "combined": 6132,
      "library": 6133,
      "u00d": 6134,
      "surgery": 6135,
      "subpar": 6136,
      "mixture": 6137,
      "tella": 6138,
      "backs": 6139,
      "filipino": 6140,
      "cracked": 6141,
      "technician": 6142,
      "400": 6143,
      "retro": 6144,
      "discover": 6145,
      "radio": 6146,
      "cany": 6147,
      "itter": 6148,
      "heels": 6149,
      "cases": 6150,
      "maintained": 6151,
      "mately": 6152,
      "bree": 6153,
      "ricotta": 6154,
      "grey": 6155,
      "divine": 6156,
      "player": 6157,
      "dren": 6158,
      "surely": 6159,
      "sauteed": 6160,
      "plug": 6161,
      "supervisor": 6162,
      "ville": 6163,
      "2011": 6164,
      "bache": 6165,
      "tangy": 6166,
      "iche": 6167,
      "upper": 6168,
      "appt": 6169,
      "lorette": 6170,
      "arugula": 6171,
      "elegant": 6172,
      "magaz": 6173,
      "convinced": 6174,
      "budd": 6175,
      "lls": 6176,
      "reviewed": 6177,
      "letter": 6178,
      "gay": 6179,
      "dipped": 6180,
      "printed": 6181,
      "categor": 6182,
      "colored": 6183,
      "drizz": 6184,
      "salsas": 6185,
      "flip": 6186,
      "restrooms": 6187,
      "string": 6188,
      "switched": 6189,
      "preparation": 6190,
      "lava": 6191,
      "utensils": 6192,
      "mechanic": 6193,
      "nan": 6194,
      "reliable": 6195,
      "hhh": 6196,
      "deck": 6197,
      "wave": 6198,
      "u00e7": 6199,
      "brief": 6200,
      "pushing": 6201,
      "bug": 6202,
      "valent": 6203,
      "tober": 6204,
      "makeup": 6205,
      "palate": 6206,
      "49": 6207,
      "trim": 6208,
      "aaa": 6209,
      "guarantee": 6210,
      "witness": 6211,
      "copy": 6212,
      "fear": 6213,
      "huh": 6214,
      "jalapenos": 6215,
      "proced": 6216,
      "patients": 6217,
      "surrounded": 6218,
      "august": 6219,
      "spiced": 6220,
      "ils": 6221,
      "solution": 6222,
      "ply": 6223,
      "battery": 6224,
      "hilar": 6225,
      "nhad": 6226,
      "license": 6227,
      "cancelled": 6228,
      "term": 6229,
      "...\\\"": 6230,
      "trek": 6231,
      "shade": 6232,
      "native": 6233,
      "develo": 6234,
      "slide": 6235,
      "flies": 6236,
      "merchandise": 6237,
      "maid": 6238,
      "yep": 6239,
      "pride": 6240,
      "peanuts": 6241,
      "habit": 6242,
      "maker": 6243,
      "ultimately": 6244,
      "freakin": 6245,
      "drivers": 6246,
      "beats": 6247,
      "amed": 6248,
      "poke": 6249,
      "frame": 6250,
      "sleeping": 6251,
      "inations": 6252,
      "wasting": 6253,
      "mocha": 6254,
      "shamp": 6255,
      "model": 6256,
      "dave": 6257,
      "curds": 6258,
      "hooters": 6259,
      "shampoo": 6260,
      "sending": 6261,
      "bye": 6262,
      "forms": 6263,
      "conco": 6264,
      "beit": 6265,
      "accompany": 6266,
      "desire": 6267,
      "varieties": 6268,
      "university": 6269,
      "warn": 6270,
      "behavior": 6271,
      "holl": 6272,
      "stretch": 6273,
      "patties": 6274,
      "spit": 6275,
      "fox": 6276,
      "tartare": 6277,
      "aqu": 6278,
      "safety": 6279,
      "navig": 6280,
      "dur": 6281,
      "props": 6282,
      "pico": 6283,
      "nutella": 6284,
      "reality": 6285,
      "quet": 6286,
      "craf": 6287,
      "remarkable": 6288,
      "dairy": 6289,
      "bachelorette": 6290,
      "tribut": 6291,
      "sont": 6292,
      "sans": 6293,
      "masala": 6294,
      "genuinely": 6295,
      "ads": 6296,
      "ckets": 6297,
      "ost": 6298,
      "leaf": 6299,
      "jet": 6300,
      "nex": 6301,
      "ures": 6302,
      "project": 6303,
      "danger": 6304,
      "3pm": 6305,
      "bler": 6306,
      "provides": 6307,
      "sirloin": 6308,
      "francisco": 6309,
      "stall": 6310,
      "gladly": 6311,
      "kar": 6312,
      "diverse": 6313,
      "harrah": 6314,
      "lied": 6315,
      "goodies": 6316,
      "cad": 6317,
      "laptop": 6318,
      "muffins": 6319,
      "exceed": 6320,
      "loving": 6321,
      "drug": 6322,
      "duty": 6323,
      "gaming": 6324,
      "sells": 6325,
      "lift": 6326,
      "auf": 6327,
      "content": 6328,
      "?\\\"\\": 6329,
      "nalthough": 6330,
      "chai": 6331,
      "sian": 6332,
      "ingredient": 6333,
      "performers": 6334,
      "reme": 6335,
      "freshness": 6336,
      "battered": 6337,
      "85": 6338,
      "nwent": 6339,
      "nwhy": 6340,
      "array": 6341,
      "bally": 6342,
      "pricy": 6343,
      "vy": 6344,
      "stories": 6345,
      "listened": 6346,
      "prescription": 6347,
      "cheesesteak": 6348,
      "miserable": 6349,
      "pharmacy": 6350,
      "boutique": 6351,
      "jobs": 6352,
      "steve": 6353,
      "acco": 6354,
      "supplies": 6355,
      "caramelized": 6356,
      "pretzels": 6357,
      "comedy": 6358,
      "conclusion": 6359,
      "forgettable": 6360,
      "advertising": 6361,
      "status": 6362,
      "mich": 6363,
      "edges": 6364,
      "outlets": 6365,
      "cise": 6366,
      "purse": 6367,
      "myster": 6368,
      "smiling": 6369,
      "tube": 6370,
      "losing": 6371,
      "michel": 6372,
      "decorations": 6373,
      "dissapoint": 6374,
      "tious": 6375,
      "skeptical": 6376,
      "albeit": 6377,
      "stor": 6378,
      "measure": 6379,
      "flor": 6380,
      "happier": 6381,
      "lling": 6382,
      "opt": 6383,
      "dealers": 6384,
      "dealt": 6385,
      "dryer": 6386,
      "acity": 6387,
      "horribly": 6388,
      "kk": 6389,
      "chew": 6390,
      "slap": 6391,
      "anky": 6392,
      "grounds": 6393,
      "strongly": 6394,
      "toys": 6395,
      "squid": 6396,
      "choosing": 6397,
      "facebook": 6398,
      "nurse": 6399,
      "raving": 6400,
      "disrespect": 6401,
      "carni": 6402,
      "smothered": 6403,
      "deb": 6404,
      "techno": 6405,
      "sep": 6406,
      "deciding": 6407,
      "instantly": 6408,
      "discounted": 6409,
      "dome": 6410,
      "4pm": 6411,
      "scan": 6412,
      "stink": 6413,
      "attending": 6414,
      "hyped": 6415,
      "brands": 6416,
      "wir": 6417,
      "distin": 6418,
      "referred": 6419,
      "nes": 6420,
      "inf": 6421,
      "enormous": 6422,
      "shaped": 6423,
      "automatically": 6424,
      "moments": 6425,
      "nthanks": 6426,
      "stro": 6427,
      "anybody": 6428,
      "whom": 6429,
      "kimchi": 6430,
      "uzz": 6431,
      "beet": 6432,
      "advise": 6433,
      "june": 6434,
      "fianc": 6435,
      "fave": 6436,
      "fourth": 6437,
      "ista": 6438,
      "condesc": 6439,
      "rors": 6440,
      "couldnt": 6441,
      "film": 6442,
      "vast": 6443,
      "herbs": 6444,
      "amounts": 6445,
      "endless": 6446,
      "sie": 6447,
      "mimosas": 6448,
      "desperate": 6449,
      "cloth": 6450,
      "valid": 6451,
      "hmmm": 6452,
      "toy": 6453,
      "jacuzz": 6454,
      "advent": 6455,
      "visible": 6456,
      "substitute": 6457,
      "wooden": 6458,
      "conditioning": 6459,
      "bam": 6460,
      "wipe": 6461,
      "distur": 6462,
      "decently": 6463,
      "refrigerator": 6464,
      "clar": 6465,
      "ihop": 6466,
      "ownership": 6467,
      "cable": 6468,
      "toes": 6469,
      "completed": 6470,
      "summerlin": 6471,
      "jung": 6472,
      "crush": 6473,
      "cia": 6474,
      "horren": 6475,
      "monthly": 6476,
      "humor": 6477,
      "pista": 6478,
      "camera": 6479,
      "swing": 6480,
      "mattress": 6481,
      "definite": 6482,
      "providing": 6483,
      "preference": 6484,
      "flaw": 6485,
      "chimich": 6486,
      "carlo": 6487,
      "favour": 6488,
      "rosemary": 6489,
      "tent": 6490,
      "resist": 6491,
      "tony": 6492,
      "assistance": 6493,
      "installed": 6494,
      "ew": 6495,
      "closet": 6496,
      "italy": 6497,
      "fondue": 6498,
      "belt": 6499,
      "dinning": 6500,
      "talented": 6501,
      "reserve": 6502,
      "ony": 6503,
      "allows": 6504,
      "carts": 6505,
      "nature": 6506,
      "eatery": 6507,
      "skil": 6508,
      "overpowering": 6509,
      "scrap": 6510,
      "hundreds": 6511,
      "gut": 6512,
      "map": 6513,
      "nanyways": 6514,
      "oreg": 6515,
      "fait": 6516,
      "renovated": 6517,
      "aber": 6518,
      "opposed": 6519,
      "meaty": 6520,
      "accessories": 6521,
      "aux": 6522,
      "maine": 6523,
      "approxim": 6524,
      "pistachio": 6525,
      "satisfac": 6526,
      "network": 6527,
      "knocked": 6528,
      "ports": 6529,
      "heavenly": 6530,
      "brit": 6531,
      "u00e8re": 6532,
      "diagno": 6533,
      "independ": 6534,
      "april": 6535,
      "lively": 6536,
      "massages": 6537,
      "bummed": 6538,
      "moves": 6539,
      "sweets": 6540,
      "ppl": 6541,
      "error": 6542,
      "excali": 6543,
      "sooooo": 6544,
      "pian": 6545,
      "locker": 6546,
      "dental": 6547,
      "rented": 6548,
      "dragon": 6549,
      "caro": 6550,
      "trees": 6551,
      "constant": 6552,
      "piping": 6553,
      "nfrom": 6554,
      "session": 6555,
      "processed": 6556,
      "route": 6557,
      "nnever": 6558,
      "latest": 6559,
      "hunt": 6560,
      "washer": 6561,
      "serie": 6562,
      "pollo": 6563,
      "cles": 6564,
      "aled": 6565,
      "kel": 6566,
      "mousse": 6567,
      "knots": 6568,
      "inches": 6569,
      "covers": 6570,
      "driven": 6571,
      "disgusted": 6572,
      "styles": 6573,
      "!!!!!!": 6574,
      "existent": 6575,
      "cashiers": 6576,
      "proud": 6577,
      "sticking": 6578,
      "notes": 6579,
      "whose": 6580,
      "continues": 6581,
      "drenched": 6582,
      "sits": 6583,
      "americanized": 6584,
      "brio": 6585,
      "vir": 6586,
      "nies": 6587,
      "skipped": 6588,
      "execut": 6589,
      "poached": 6590,
      "married": 6591,
      "novel": 6592,
      "baseball": 6593,
      "36": 6594,
      "shine": 6595,
      "elle": 6596,
      "circle": 6597,
      "yup": 6598,
      "scru": 6599,
      "pastor": 6600,
      "hospitality": 6601,
      "):": 6602,
      "nprice": 6603,
      "________": 6604,
      "satisfaction": 6605,
      "deserts": 6606,
      "earl": 6607,
      "napkin": 6608,
      "pulling": 6609,
      "adventur": 6610,
      "arcade": 6611,
      "nthank": 6612,
      "plays": 6613,
      "born": 6614,
      "11am": 6615,
      "promotion": 6616,
      "++": 6617,
      "lting": 6618,
      "beg": 6619,
      "spor": 6620,
      "yelper": 6621,
      "hara": 6622,
      "condescending": 6623,
      "wend": 6624,
      "servings": 6625,
      "airline": 6626,
      "dense": 6627,
      "48": 6628,
      "oak": 6629,
      "pickup": 6630,
      "hilarious": 6631,
      "lamp": 6632,
      "shown": 6633,
      "cracker": 6634,
      "lists": 6635,
      "itation": 6636,
      "deter": 6637,
      "sketchy": 6638,
      ")!": 6639,
      "cranberry": 6640,
      "estimate": 6641,
      "narrow": 6642,
      "pizzeria": 6643,
      "batch": 6644,
      "discounts": 6645,
      "sundae": 6646,
      "-\\": 6647,
      "dee": 6648,
      "reviewing": 6649,
      "naked": 6650,
      "reply": 6651,
      "bin": 6652,
      "ensive": 6653,
      "quit": 6654,
      "shelves": 6655,
      "boat": 6656,
      "informative": 6657,
      "toile": 6658,
      "flan": 6659,
      "amongst": 6660,
      "adventurous": 6661,
      "jel": 6662,
      "od": 6663,
      "streets": 6664,
      "patience": 6665,
      "soleil": 6666,
      "doesnt": 6667,
      "intention": 6668,
      "kung": 6669,
      "catering": 6670,
      "nings": 6671,
      "ranged": 6672,
      "excalibur": 6673,
      "ghe": 6674,
      "crusted": 6675,
      "jazz": 6676,
      "hike": 6677,
      "creek": 6678,
      "grandma": 6679,
      "closes": 6680,
      "transport": 6681,
      "lies": 6682,
      "naise": 6683,
      "1000": 6684,
      "nevada": 6685,
      "james": 6686,
      "gooey": 6687,
      "brazilian": 6688,
      "nprices": 6689,
      "dime": 6690,
      "blackjack": 6691,
      "additionally": 6692,
      "soc": 6693,
      "istic": 6694,
      "jungle": 6695,
      "dick": 6696,
      "lighter": 6697,
      "spective": 6698,
      "----------------": 6699,
      "fty": 6700,
      "becoming": 6701,
      "rig": 6702,
      "owed": 6703,
      "unexpected": 6704,
      "anta": 6705,
      "breaking": 6706,
      "woke": 6707,
      "gripe": 6708,
      "tenderloin": 6709,
      "',": 6710,
      "iso": 6711,
      "citrus": 6712,
      "cav": 6713,
      "sunset": 6714,
      "relation": 6715,
      "camelback": 6716,
      "nby": 6717,
      "nupon": 6718,
      "esthetic": 6719,
      "flaky": 6720,
      "stere": 6721,
      "vari": 6722,
      "commented": 6723,
      "reached": 6724,
      "smiles": 6725,
      "caprese": 6726,
      "sta": 6727,
      "hali": 6728,
      "horrendous": 6729,
      "agger": 6730,
      "proof": 6731,
      "vendors": 6732,
      "jelly": 6733,
      "nps": 6734,
      "leans": 6735,
      "needing": 6736,
      "halibut": 6737,
      "hmm": 6738,
      "esy": 6739,
      "bob": 6740,
      "clectic": 6741,
      "jersey": 6742,
      "jacuzzi": 6743,
      "cd": 6744,
      "settle": 6745,
      "executed": 6746,
      "matters": 6747,
      "sucker": 6748,
      "n6": 6749,
      "containers": 6750,
      "chuck": 6751,
      "lates": 6752,
      "sections": 6753,
      "canyon": 6754,
      "visitors": 6755,
      "heavily": 6756,
      "infe": 6757,
      "franchise": 6758,
      "imo": 6759,
      "ghost": 6760,
      "wedge": 6761,
      "cessive": 6762,
      "employ": 6763,
      "soph": 6764,
      "aut": 6765,
      "omy": 6766,
      "incompetent": 6767,
      "bleu": 6768,
      "!!!!\\": 6769,
      "martinis": 6770,
      "foo": 6771,
      "rear": 6772,
      "intended": 6773,
      "extended": 6774,
      "watermelon": 6775,
      "routine": 6776,
      "pastas": 6777,
      "combinations": 6778,
      "nordered": 6779,
      "socks": 6780,
      "barber": 6781,
      "====": 6782,
      "ceas": 6783,
      "artists": 6784,
      "seaweed": 6785,
      "conversations": 6786,
      "itty": 6787,
      "answers": 6788,
      "sunny": 6789,
      "woo": 6790,
      "birds": 6791,
      "ero": 6792,
      "sers": 6793,
      "prevent": 6794,
      "angeles": 6795,
      "sis": 6796,
      "timing": 6797,
      "author": 6798,
      "salons": 6799,
      "eyebrows": 6800,
      "spaces": 6801,
      "weigh": 6802,
      "decad": 6803,
      "fitting": 6804,
      "tik": 6805,
      "11pm": 6806,
      "microwaved": 6807,
      "acces": 6808,
      "skimpy": 6809,
      "accomo": 6810,
      "cca": 6811,
      "unimpressed": 6812,
      "medic": 6813,
      "dingy": 6814,
      "squeeze": 6815,
      "feast": 6816,
      "excessive": 6817,
      "jose": 6818,
      "00pm": 6819,
      "sheet": 6820,
      "definately": 6821,
      "directions": 6822,
      "eclectic": 6823,
      "oat": 6824,
      "killed": 6825,
      "squeezed": 6826,
      "cardboard": 6827,
      "lina": 6828,
      "joined": 6829,
      "execution": 6830,
      "robat": 6831,
      "abun": 6832,
      "nine": 6833,
      "horse": 6834,
      "lane": 6835,
      "tile": 6836,
      "exotic": 6837,
      "ckey": 6838,
      "painful": 6839,
      "cio": 6840,
      "legal": 6841,
      "spirit": 6842,
      "pil": 6843,
      "lev": 6844,
      "mol": 6845,
      "incorrect": 6846,
      "drum": 6847,
      "charred": 6848,
      "loudly": 6849,
      "courtesy": 6850,
      "iff": 6851,
      "blended": 6852,
      "december": 6853,
      "rou": 6854,
      "accepted": 6855,
      "spilled": 6856,
      "gather": 6857,
      "nau": 6858,
      "oon": 6859,
      "horser": 6860,
      "disorganized": 6861,
      "louis": 6862,
      "neath": 6863,
      "fortune": 6864,
      "horserad": 6865,
      ".'": 6866,
      "ntwo": 6867,
      "walnut": 6868,
      "inspection": 6869,
      "arrives": 6870,
      "october": 6871,
      "sahara": 6872,
      "repeatedly": 6873,
      "cham": 6874,
      "soak": 6875,
      "unnecessary": 6876,
      "accidentally": 6877,
      "baguette": 6878,
      "underneath": 6879,
      "tamale": 6880,
      "cone": 6881,
      "accent": 6882,
      "puppy": 6883,
      "dare": 6884,
      "ndrinks": 6885,
      "leak": 6886,
      "boston": 6887,
      "isnt": 6888,
      "presence": 6889,
      "holidays": 6890,
      "depot": 6891,
      "garnish": 6892,
      "sausages": 6893,
      "harder": 6894,
      "horseradish": 6895,
      "crav": 6896,
      "ipa": 6897,
      "sig": 6898,
      "scotch": 6899,
      "cappu": 6900,
      "glazed": 6901,
      "bubble": 6902,
      "exer": 6903,
      "steel": 6904,
      "xx": 6905,
      "hol": 6906,
      "ida": 6907,
      "feedback": 6908,
      "ghest": 6909,
      "lbs": 6910,
      "conver": 6911,
      "flowing": 6912,
      "atm": 6913,
      "5th": 6914,
      "sooner": 6915,
      "excite": 6916,
      "refle": 6917,
      "hesitant": 6918,
      "remodeled": 6919,
      "breeze": 6920,
      "kab": 6921,
      "ori": 6922,
      "herb": 6923,
      "trader": 6924,
      "ji": 6925,
      "nels": 6926,
      "grate": 6927,
      "oken": 6928,
      "truf": 6929,
      "sequ": 6930,
      "shorts": 6931,
      "lasted": 6932,
      "lastly": 6933,
      "creamed": 6934,
      "esp": 6935,
      "bouch": 6936,
      "seemingly": 6937,
      "tram": 6938,
      "pregnant": 6939,
      "dang": 6940,
      "overdone": 6941,
      "sf": 6942,
      "iny": 6943,
      "depends": 6944,
      "insanely": 6945,
      "false": 6946,
      "ante": 6947,
      "cabana": 6948,
      "quir": 6949,
      "laun": 6950,
      "suddenly": 6951,
      "nstaff": 6952,
      "nits": 6953,
      "ears": 6954,
      "largest": 6955,
      "organization": 6956,
      "directed": 6957,
      "george": 6958,
      "gigantic": 6959,
      "yi": 6960,
      "verde": 6961,
      "adam": 6962,
      "newly": 6963,
      "naturally": 6964,
      "illas": 6965,
      "angel": 6966,
      "regis": 6967,
      "miracle": 6968,
      "patch": 6969,
      "tost": 6970,
      "ultimate": 6971,
      "viol": 6972,
      "approximately": 6973,
      "overlooking": 6974,
      "tends": 6975,
      "vary": 6976,
      "gher": 6977,
      "redeeming": 6978,
      "link": 6979,
      "reu": 6980,
      "asy": 6981,
      "riptions": 6982,
      "orleans": 6983,
      "rigu": 6984,
      "fective": 6985,
      "pressing": 6986,
      "confusion": 6987,
      "economy": 6988,
      "2pm": 6989,
      "vor": 6990,
      "covering": 6991,
      "hills": 6992,
      "gear": 6993,
      "keting": 6994,
      "mai": 6995,
      "bourbon": 6996,
      "bobby": 6997,
      "bulgo": 6998,
      "stunning": 6999,
      "burning": 7000,
      "fuel": 7001,
      "gifts": 7002,
      "nmost": 7003,
      "fridays": 7004,
      "greatly": 7005,
      "appall": 7006,
      "aisle": 7007,
      "rier": 7008,
      "ramsay": 7009,
      "aaaa": 7010,
      "skillet": 7011,
      "ique": 7012,
      "ella": 7013,
      "jas": 7014,
      "nupdate": 7015,
      "ggling": 7016,
      "plants": 7017,
      "dripping": 7018,
      "wouldnt": 7019,
      "39": 7020,
      "jokes": 7021,
      "chilled": 7022,
      "aggressive": 7023,
      "connection": 7024,
      "dunk": 7025,
      "jason": 7026,
      "someplace": 7027,
      "intrigu": 7028,
      "imper": 7029,
      "particip": 7030,
      "respond": 7031,
      "guit": 7032,
      "colorful": 7033,
      "jumped": 7034,
      "eel": 7035,
      "wonderfully": 7036,
      "sourdough": 7037,
      "moo": 7038,
      "ani": 7039,
      "barista": 7040,
      "glor": 7041,
      "explore": 7042,
      "motor": 7043,
      "proxim": 7044,
      "imp": 7045,
      "supermarket": 7046,
      "nnice": 7047,
      "essed": 7048,
      "steer": 7049,
      "reflect": 7050,
      "riott": 7051,
      "peu": 7052,
      "oddly": 7053,
      "channel": 7054,
      "crimin": 7055,
      "bru": 7056,
      "guin": 7057,
      "ike": 7058,
      "rober": 7059,
      "cox": 7060,
      "pao": 7061,
      "quis": 7062,
      "structure": 7063,
      "jus": 7064,
      "supply": 7065,
      "stained": 7066,
      "oatmeal": 7067,
      "wagyu": 7068,
      "tiest": 7069,
      "backed": 7070,
      "trucks": 7071,
      "sensit": 7072,
      "rye": 7073,
      "beli": 7074,
      "ames": 7075,
      "upside": 7076,
      "ators": 7077,
      "archite": 7078,
      "transaction": 7079,
      "wendy": 7080,
      "vern": 7081,
      "anyhow": 7082,
      "stream": 7083,
      "billing": 7084,
      "critic": 7085,
      "aim": 7086,
      "u30": 7087,
      "sharp": 7088,
      "u00f1o": 7089,
      "successful": 7090,
      "fettu": 7091,
      "alex": 7092,
      "escal": 7093,
      "iceberg": 7094,
      "astro": 7095,
      "cats": 7096,
      "reuben": 7097,
      "rise": 7098,
      "caffe": 7099,
      "reheated": 7100,
      "hibachi": 7101,
      "rences": 7102,
      "bikes": 7103,
      "competitive": 7104,
      "infused": 7105,
      "gau": 7106,
      "scent": 7107,
      "calzone": 7108,
      "properties": 7109,
      "shru": 7110,
      "positives": 7111,
      "winning": 7112,
      "hired": 7113,
      "google": 7114,
      "cravings": 7115,
      "avenue": 7116,
      "broo": 7117,
      "cine": 7118,
      "rick": 7119,
      "subtle": 7120,
      "250": 7121,
      "hama": 7122,
      "dislike": 7123,
      "partying": 7124,
      "rushing": 7125,
      "splash": 7126,
      "nof": 7127,
      "rial": 7128,
      "union": 7129,
      "nove": 7130,
      "summary": 7131,
      "fifteen": 7132,
      "enthusiastic": 7133,
      "cones": 7134,
      "focused": 7135,
      "*\\": 7136,
      "haust": 7137,
      "brea": 7138,
      "guarante": 7139,
      "january": 7140,
      "significant": 7141,
      "120": 7142,
      "claims": 7143,
      "attered": 7144,
      "contemporary": 7145,
      "international": 7146,
      "wiscon": 7147,
      "proximity": 7148,
      "bei": 7149,
      "limo": 7150,
      "cheers": 7151,
      "wore": 7152,
      "deluxe": 7153,
      "porter": 7154,
      "2010": 7155,
      "oxtail": 7156,
      "exhaust": 7157,
      "rows": 7158,
      "manger": 7159,
      "pane": 7160,
      "ivity": 7161,
      "arium": 7162,
      "shells": 7163,
      "wisconsin": 7164,
      "kinks": 7165,
      "grum": 7166,
      "husbands": 7167,
      "7th": 7168,
      "dill": 7169,
      ".....\\": 7170,
      "kindly": 7171,
      "broad": 7172,
      "sofa": 7173,
      "puppies": 7174,
      "seni": 7175,
      "rounds": 7176,
      "celebrating": 7177,
      "swim": 7178,
      "aping": 7179,
      "handling": 7180,
      "understandable": 7181,
      "layers": 7182,
      "kne": 7183,
      "hockey": 7184,
      "pasty": 7185,
      "skirt": 7186,
      "varied": 7187,
      "threat": 7188,
      "empan": 7189,
      "mt": 7190,
      "aper": 7191,
      "electric": 7192,
      "wei": 7193,
      "peep": 7194,
      "dispen": 7195,
      "professionalism": 7196,
      "obs": 7197,
      "strom": 7198,
      "picnic": 7199,
      "hunger": 7200,
      "techn": 7201,
      "laundry": 7202,
      "theaters": 7203,
      "forum": 7204,
      "warmed": 7205,
      "floating": 7206,
      "deserved": 7207,
      "purple": 7208,
      "insult": 7209,
      "indic": 7210,
      "feelings": 7211,
      "coco": 7212,
      "rotation": 7213,
      "tartar": 7214,
      "sparse": 7215,
      "clinic": 7216,
      "waits": 7217,
      "fled": 7218,
      "salesman": 7219,
      "sear": 7220,
      "petite": 7221,
      "snoo": 7222,
      "associates": 7223,
      "hangout": 7224,
      "bulgogi": 7225,
      "cid": 7226,
      "european": 7227,
      "nneedless": 7228,
      "basics": 7229,
      "...)": 7230,
      "lunchtime": 7231,
      "whim": 7232,
      "recommending": 7233,
      "packages": 7234,
      "hallo": 7235,
      "piled": 7236,
      "negatives": 7237,
      "zum": 7238,
      "oul": 7239,
      "acrobat": 7240,
      "theres": 7241,
      "disney": 7242,
      "wondered": 7243,
      "clusive": 7244,
      "buildings": 7245,
      "discuss": 7246,
      "icle": 7247,
      "dudes": 7248,
      "tint": 7249,
      "ooo": 7250,
      "marily": 7251,
      "nnote": 7252,
      "shield": 7253,
      "cities": 7254,
      "nparking": 7255,
      "boards": 7256,
      "cough": 7257,
      "thro": 7258,
      "suits": 7259,
      "seless": 7260,
      "bello": 7261,
      "gos": 7262,
      "harsh": 7263,
      "responsi": 7264,
      "boarding": 7265,
      "wandering": 7266,
      "occasional": 7267,
      "escor": 7268,
      "ceil": 7269,
      "ggle": 7270,
      "freezing": 7271,
      "crying": 7272,
      "crumbs": 7273,
      "chen": 7274,
      "identi": 7275,
      "uneven": 7276,
      "signage": 7277,
      "healthier": 7278,
      "corrected": 7279,
      "equal": 7280,
      "ceilings": 7281,
      "actions": 7282,
      "highest": 7283,
      "awns": 7284,
      "carpets": 7285,
      "celebration": 7286,
      "favourite": 7287,
      "assem": 7288,
      "surf": 7289,
      "bid": 7290,
      "eld": 7291,
      "ncan": 7292,
      "slip": 7293,
      "2am": 7294,
      "uted": 7295,
      "guil": 7296,
      "wolf": 7297,
      "intense": 7298,
      "relationship": 7299,
      "chon": 7300,
      "aisles": 7301,
      "chalk": 7302,
      "emailed": 7303,
      "delayed": 7304,
      "cowboy": 7305,
      "natmosphere": 7306,
      "designer": 7307,
      "groceries": 7308,
      "halloween": 7309,
      "grind": 7310,
      "solely": 7311,
      "celery": 7312,
      "terrace": 7313,
      "confirmation": 7314,
      "lette": 7315,
      "marrow": 7316,
      "tres": 7317,
      "boots": 7318,
      "bench": 7319,
      "competi": 7320,
      "eine": 7321,
      "asap": 7322,
      "mochi": 7323,
      "bizar": 7324,
      "andaise": 7325,
      "fillet": 7326,
      "gallo": 7327,
      "crout": 7328,
      "bras": 7329,
      "pinch": 7330,
      "wrist": 7331,
      "browse": 7332,
      "sprinkled": 7333,
      "bulk": 7334,
      "accessible": 7335,
      "38": 7336,
      "dash": 7337,
      "lenti": 7338,
      "sons": 7339,
      "delicate": 7340,
      "hollandaise": 7341,
      "expectation": 7342,
      "decadent": 7343,
      "199": 7344,
      "powered": 7345,
      "award": 7346,
      "clueless": 7347,
      "coffees": 7348,
      "headache": 7349,
      "answering": 7350,
      "wontons": 7351,
      "learning": 7352,
      "piano": 7353,
      "coach": 7354,
      "tavern": 7355,
      "carpac": 7356,
      "ipad": 7357,
      "seeds": 7358,
      "lac": 7359,
      "contained": 7360,
      "excitement": 7361,
      "downright": 7362,
      "smiled": 7363,
      "capital": 7364,
      "cabin": 7365,
      "ission": 7366,
      "operation": 7367,
      "excuses": 7368,
      "dc": 7369,
      "kio": 7370,
      "brakes": 7371,
      "u00eame": 7372,
      "chase": 7373,
      "trays": 7374,
      "slammed": 7375,
      "banh": 7376,
      "ridge": 7377,
      "ttes": 7378,
      "feat": 7379,
      "chocolates": 7380,
      "curtains": 7381,
      "tikka": 7382,
      "mie": 7383,
      "glend": 7384,
      "rais": 7385,
      "cotton": 7386,
      "delect": 7387,
      "brilli": 7388,
      "boneless": 7389,
      "steakhouses": 7390,
      "stuffing": 7391,
      "tuesdays": 7392,
      "passen": 7393,
      "apply": 7394,
      "bento": 7395,
      "nest": 7396,
      "stolen": 7397,
      "stein": 7398,
      "runner": 7399,
      "vegetarians": 7400,
      "candle": 7401,
      "matched": 7402,
      "pf": 7403,
      "emails": 7404,
      "mama": 7405,
      "tater": 7406,
      "atro": 7407,
      "ultra": 7408,
      "doughy": 7409,
      "pounds": 7410,
      "lanes": 7411,
      "hesitate": 7412,
      "penne": 7413,
      "category": 7414,
      "cs": 7415,
      "gloves": 7416,
      "aler": 7417,
      "bold": 7418,
      "chosen": 7419,
      "comfortably": 7420,
      "tamales": 7421,
      "ender": 7422,
      "venir": 7423,
      "raise": 7424,
      "ideas": 7425,
      "severely": 7426,
      "lers": 7427,
      "smack": 7428,
      "responsible": 7429,
      "relu": 7430,
      "escape": 7431,
      "thicker": 7432,
      "gradu": 7433,
      "deni": 7434,
      "becomes": 7435,
      "showers": 7436,
      "whip": 7437,
      "riding": 7438,
      "elvis": 7439,
      "instant": 7440,
      "nacho": 7441,
      "tempted": 7442,
      "hust": 7443,
      "belgi": 7444,
      "reluct": 7445,
      "wiped": 7446,
      "joking": 7447,
      "navigate": 7448,
      "?),": 7449,
      "ncheck": 7450,
      "virt": 7451,
      "reminis": 7452,
      "fois": 7453,
      "apologies": 7454,
      "apparent": 7455,
      "allergic": 7456,
      "andre": 7457,
      "liver": 7458,
      "prawns": 7459,
      "eaters": 7460,
      "glance": 7461,
      "thoughts": 7462,
      "shabby": 7463,
      "roughly": 7464,
      "vit": 7465,
      "wen": 7466,
      "leep": 7467,
      "venues": 7468,
      "warma": 7469,
      "luxu": 7470,
      "mimosa": 7471,
      "nreally": 7472,
      "nlove": 7473,
      "daughters": 7474,
      "frustration": 7475,
      "seren": 7476,
      "sizz": 7477,
      "shipping": 7478,
      "priority": 7479,
      "ccino": 7480,
      "encourage": 7481,
      "bouchon": 7482,
      "sci": 7483,
      "mornings": 7484,
      "basketball": 7485,
      "allergies": 7486,
      "paella": 7487,
      "complicated": 7488,
      "collect": 7489,
      "imperial": 7490,
      "asleep": 7491,
      "tropicana": 7492,
      "guilty": 7493,
      "magn": 7494,
      "palm": 7495,
      "pir": 7496,
      "useless": 7497,
      "dem": 7498,
      "splurge": 7499,
      "carrying": 7500,
      "ials": 7501,
      "tepp": 7502,
      "tools": 7503,
      "extraordinary": 7504,
      "leftover": 7505,
      "cider": 7506,
      "neon": 7507,
      "cano": 7508,
      "avoided": 7509,
      "eeee": 7510,
      "nsorry": 7511,
      "pred": 7512,
      "chem": 7513,
      "sandwhich": 7514,
      "handy": 7515,
      "sich": 7516,
      "zard": 7517,
      "lest": 7518,
      "=)": 7519,
      "aid": 7520,
      "dread": 7521,
      "sober": 7522,
      "lessly": 7523,
      "glendale": 7524,
      "snot": 7525,
      "inattentive": 7526,
      "repl": 7527,
      "crusty": 7528,
      "scramble": 7529,
      "aquarium": 7530,
      "refried": 7531,
      "tummy": 7532,
      "nchicken": 7533,
      "crown": 7534,
      "cigar": 7535,
      "slower": 7536,
      "relleno": 7537,
      "gus": 7538,
      "liest": 7539,
      "marketing": 7540,
      "carpaccio": 7541,
      "addy": 7542,
      "fills": 7543,
      "hallways": 7544,
      "timesha": 7545,
      "u00e9es": 7546,
      "ranging": 7547,
      "glaze": 7548,
      "bizarre": 7549,
      "ht": 7550,
      "icles": 7551,
      "bake": 7552,
      "exagger": 7553,
      "grabbing": 7554,
      "filter": 7555,
      "gou": 7556,
      "izon": 7557,
      "u00e9t": 7558,
      "promoter": 7559,
      "outback": 7560,
      "blackened": 7561,
      "therapist": 7562,
      "ntip": 7563,
      "adjac": 7564,
      "plantain": 7565,
      "carolina": 7566,
      "carried": 7567,
      "smelling": 7568,
      "chata": 7569,
      "remaining": 7570,
      "activities": 7571,
      "grande": 7572,
      "remodel": 7573,
      "dangerous": 7574,
      "brat": 7575,
      "mug": 7576,
      "damaged": 7577,
      "chimichang": 7578,
      "grateful": 7579,
      "yikes": 7580,
      "adjacent": 7581,
      "haul": 7582,
      "ell": 7583,
      "wound": 7584,
      "gyoz": 7585,
      "outdoors": 7586,
      "smalle": 7587,
      "centre": 7588,
      "recipes": 7589,
      "nj": 7590,
      "udon": 7591,
      "celebrity": 7592,
      "smallest": 7593,
      "genius": 7594,
      "ski": 7595,
      "republic": 7596,
      "homeless": 7597,
      "faced": 7598,
      "supporting": 7599,
      "marriott": 7600,
      "torta": 7601,
      "blows": 7602,
      "military": 7603,
      "jean": 7604,
      "bianco": 7605,
      "oce": 7606,
      "meas": 7607,
      "marsh": 7608,
      "10am": 7609,
      "resched": 7610,
      "situated": 7611,
      "wre": 7612,
      "causing": 7613,
      "interaction": 7614,
      "earn": 7615,
      "delectable": 7616,
      "traction": 7617,
      "study": 7618,
      "spotty": 7619,
      "pered": 7620,
      "u00f4": 7621,
      "cans": 7622,
      "counts": 7623,
      "exceptionally": 7624,
      "procedure": 7625,
      "jury": 7626,
      "mellow": 7627,
      "questionable": 7628,
      "encounter": 7629,
      "aught": 7630,
      "series": 7631,
      "ional": 7632,
      "breaks": 7633,
      "fruity": 7634,
      "capacity": 7635,
      "contrast": 7636,
      "counting": 7637,
      "panang": 7638,
      "cucumbers": 7639,
      "oriented": 7640,
      "displayed": 7641,
      "deliciousness": 7642,
      "1pm": 7643,
      "?!\\": 7644,
      "stared": 7645,
      "dol": 7646,
      "virtually": 7647,
      "consult": 7648,
      "reaction": 7649,
      "ene": 7650,
      "kabob": 7651,
      "gage": 7652,
      "artis": 7653,
      "separately": 7654,
      "sampling": 7655,
      "uv": 7656,
      "television": 7657,
      "distinct": 7658,
      "sensitive": 7659,
      "aunt": 7660,
      "repaired": 7661,
      "margher": 7662,
      "dani": 7663,
      "pod": 7664,
      "beside": 7665,
      "shorter": 7666,
      "brilliant": 7667,
      "butcher": 7668,
      "carefully": 7669,
      "comparing": 7670,
      "significantly": 7671,
      "gag": 7672,
      "u00eat": 7673,
      ":(\\": 7674,
      "fuss": 7675,
      "assigned": 7676,
      "sehr": 7677,
      "cleaners": 7678,
      "chunky": 7679,
      "latter": 7680,
      "slab": 7681,
      "compliments": 7682,
      "bridge": 7683,
      "extras": 7684,
      "800": 7685,
      "bound": 7686,
      "rian": 7687,
      "div": 7688,
      "pouring": 7689,
      "expired": 7690,
      "ndessert": 7691,
      "guaranteed": 7692,
      "ofo": 7693,
      "foam": 7694,
      "techni": 7695,
      "patiently": 7696,
      "arguing": 7697,
      "gumbo": 7698,
      "nplease": 7699,
      "turf": 7700,
      "haw": 7701,
      "nets": 7702,
      "msg": 7703,
      "pleasing": 7704,
      "meanwhile": 7705,
      "papa": 7706,
      "lamps": 7707,
      "asha": 7708,
      "holds": 7709,
      "thirty": 7710,
      "spiciness": 7711,
      "ddle": 7712,
      "confident": 7713,
      "pra": 7714,
      "allergy": 7715,
      "guitar": 7716,
      "aesthetic": 7717,
      "nagain": 7718,
      "nal": 7719,
      "prove": 7720,
      "loads": 7721,
      "johnny": 7722,
      "exped": 7723,
      "detailed": 7724,
      "frills": 7725,
      "convince": 7726,
      "horchata": 7727,
      "dumpling": 7728,
      "flex": 7729,
      "industrial": 7730,
      "shy": 7731,
      "applied": 7732,
      "dedicated": 7733,
      "records": 7734,
      "margherita": 7735,
      "moun": 7736,
      "wilted": 7737,
      "instructors": 7738,
      "oons": 7739,
      "stuffy": 7740,
      "lifetime": 7741,
      "flush": 7742,
      "dull": 7743,
      "thousands": 7744,
      "paul": 7745,
      "costumes": 7746,
      "cardio": 7747,
      "ethnic": 7748,
      "jacket": 7749,
      "nbe": 7750,
      "passable": 7751,
      "immediate": 7752,
      "nugget": 7753,
      "signing": 7754,
      "luxurious": 7755,
      "gment": 7756,
      "hd": 7757,
      "jes": 7758,
      "determin": 7759,
      "frit": 7760,
      "attitudes": 7761,
      "gentlemen": 7762,
      "essen": 7763,
      "jumbo": 7764,
      "lif": 7765,
      "monkey": 7766,
      "101": 7767,
      "videos": 7768,
      "odor": 7769,
      "whats": 7770,
      "questioned": 7771,
      "nseriously": 7772,
      "allowing": 7773,
      "waxing": 7774,
      "bachel": 7775,
      "milkshakes": 7776,
      "nstill": 7777,
      "beets": 7778,
      "pops": 7779,
      "brothers": 7780,
      "kong": 7781,
      "nbest": 7782,
      "aroma": 7783,
      "lyn": 7784,
      "absur": 7785,
      "agers": 7786,
      "souvenir": 7787,
      "stacked": 7788,
      "eateries": 7789,
      "cappuccino": 7790,
      "overlooked": 7791,
      "cured": 7792,
      "??\\": 7793,
      "juke": 7794,
      "thirsty": 7795,
      "puffs": 7796,
      "ntoday": 7797,
      "acid": 7798,
      "unorganized": 7799,
      "cauli": 7800,
      "burg": 7801,
      "adore": 7802,
      "increase": 7803,
      "november": 7804,
      "ocean": 7805,
      "mend": 7806,
      "sten": 7807,
      "cac": 7808,
      "loco": 7809,
      "percent": 7810,
      "reads": 7811,
      "amuse": 7812,
      "saturdays": 7813,
      "puree": 7814,
      "buddies": 7815,
      "concoction": 7816,
      "sporting": 7817,
      "ix": 7818,
      "kr": 7819,
      "concess": 7820,
      "absurd": 7821,
      "pale": 7822,
      "rer": 7823,
      "rie": 7824,
      "gyoza": 7825,
      "oned": 7826,
      "pei": 7827,
      "drown": 7828,
      "shack": 7829,
      "profit": 7830,
      "nickel": 7831,
      "pam": 7832,
      "rev": 7833,
      "babies": 7834,
      "combos": 7835,
      "tricks": 7836,
      "finan": 7837,
      "denied": 7838,
      "tified": 7839,
      "warmer": 7840,
      "itution": 7841,
      "arrogant": 7842,
      "uncle": 7843,
      "spam": 7844,
      "county": 7845,
      "windshield": 7846,
      "arena": 7847,
      "loom": 7848,
      "nerve": 7849,
      "fudge": 7850,
      "returns": 7851,
      "recognize": 7852,
      ");": 7853,
      "tand": 7854,
      "abor": 7855,
      "hush": 7856,
      "attempts": 7857,
      "diced": 7858,
      "inquired": 7859,
      "command": 7860,
      "freeway": 7861,
      "pots": 7862,
      "fooled": 7863,
      "acy": 7864,
      "paign": 7865,
      "phan": 7866,
      "catching": 7867,
      "shooting": 7868,
      "amped": 7869,
      "aze": 7870,
      "lunches": 7871,
      "panic": 7872,
      "separated": 7873,
      "labeled": 7874,
      "mum": 7875,
      "comme": 7876,
      "sauna": 7877,
      "messages": 7878,
      "histor": 7879,
      "crushed": 7880,
      "hou": 7881,
      "isserie": 7882,
      "chy": 7883,
      "meets": 7884,
      "cauliflower": 7885,
      "canad": 7886,
      "canno": 7887,
      "fixing": 7888,
      "witnessed": 7889,
      "mort": 7890,
      "attraction": 7891,
      "safeway": 7892,
      "volun": 7893,
      "robin": 7894,
      "bday": 7895,
      "pea": 7896,
      "quiche": 7897,
      "overheard": 7898,
      "brag": 7899,
      "brewed": 7900,
      "corners": 7901,
      "refunded": 7902,
      "timeshare": 7903,
      "depressing": 7904,
      "baja": 7905,
      "wowed": 7906,
      "preparing": 7907,
      "behold": 7908,
      "crackers": 7909,
      "aj": 7910,
      "regards": 7911,
      "faux": 7912,
      "responsibility": 7913,
      "hazel": 7914,
      "monor": 7915,
      "carbon": 7916,
      "fighting": 7917,
      "yrs": 7918,
      "dunkin": 7919,
      "vra": 7920,
      "ading": 7921,
      "grav": 7922,
      "ventured": 7923,
      "delivers": 7924,
      "production": 7925,
      "zip": 7926,
      "reward": 7927,
      "rustic": 7928,
      "hem": 7929,
      "margin": 7930,
      "consists": 7931,
      "jeff": 7932,
      "entertained": 7933,
      "lav": 7934,
      "crash": 7935,
      "pedicures": 7936,
      "42": 7937,
      "gio": 7938,
      "nostal": 7939,
      "independent": 7940,
      "brioche": 7941,
      "blank": 7942,
      "purchases": 7943,
      "laws": 7944,
      "monorail": 7945,
      "acry": 7946,
      "enta": 7947,
      "pretend": 7948,
      "warehouse": 7949,
      "substance": 7950,
      "judging": 7951,
      "spoken": 7952,
      "ders": 7953,
      "chest": 7954,
      "seek": 7955,
      "flew": 7956,
      "mystery": 7957,
      "ech": 7958,
      "vdar": 7959,
      "century": 7960,
      "thomas": 7961,
      "promising": 7962,
      "smelly": 7963,
      "trop": 7964,
      "leads": 7965,
      "elder": 7966,
      "bachelor": 7967,
      "grille": 7968,
      "taxes": 7969,
      "chatted": 7970,
      "mobile": 7971,
      "nation": 7972,
      "creating": 7973,
      "omelets": 7974,
      "describ": 7975,
      "tropical": 7976,
      "admittedly": 7977,
      "ntry": 7978,
      "von": 7979,
      "quarters": 7980,
      "restur": 7981,
      "amazon": 7982,
      "courty": 7983,
      "flagged": 7984,
      "lord": 7985,
      "perman": 7986,
      "agues": 7987,
      "harass": 7988,
      "rays": 7989,
      "grooming": 7990,
      "resolved": 7991,
      "trivia": 7992,
      "chemical": 7993,
      "bleed": 7994,
      "ignoring": 7995,
      "bies": 7996,
      "endro": 7997,
      "appointed": 7998,
      "grimal": 7999,
      "scrump": 8000,
      "vacy": 8001,
      "privacy": 8002,
      "sala": 8003,
      "spotted": 8004,
      "$$$": 8005,
      "wandered": 8006,
      "croutons": 8007,
      "bj": 8008,
      "n7": 8009,
      "onnaise": 8010,
      "primarily": 8011,
      "stiff": 8012,
      "mentioning": 8013,
      "apartments": 8014,
      "jerky": 8015,
      "castle": 8016,
      "indulge": 8017,
      "oregano": 8018,
      "acrylic": 8019,
      "59": 8020,
      "nwas": 8021,
      "seattle": 8022,
      "dot": 8023,
      "pong": 8024,
      "ller": 8025,
      "stole": 8026,
      "indicated": 8027,
      "shoulders": 8028,
      "brian": 8029,
      "ofoam": 8030,
      "boast": 8031,
      "mony": 8032,
      "satay": 8033,
      "instance": 8034,
      "hydr": 8035,
      "sneak": 8036,
      "inventory": 8037,
      "vdara": 8038,
      "remo": 8039,
      "bearing": 8040,
      "rim": 8041,
      "tration": 8042,
      "penn": 8043,
      "fixe": 8044,
      "mirrors": 8045,
      "crete": 8046,
      "shocking": 8047,
      "reduced": 8048,
      "manu": 8049,
      "petit": 8050,
      "randomly": 8051,
      "kits": 8052,
      "sac": 8053,
      "cra": 8054,
      "drawn": 8055,
      "awe": 8056,
      "oj": 8057,
      "escar": 8058,
      "styr": 8059,
      "bottomless": 8060,
      "intimid": 8061,
      "gracious": 8062,
      "abu": 8063,
      "veter": 8064,
      "ffee": 8065,
      "scrumptious": 8066,
      "height": 8067,
      "atrocious": 8068,
      "reported": 8069,
      "oring": 8070,
      "stamp": 8071,
      "docum": 8072,
      "claw": 8073,
      "stric": 8074,
      "fails": 8075,
      "zola": 8076,
      "user": 8077,
      "iety": 8078,
      "hosts": 8079,
      "quesadillas": 8080,
      "jr": 8081,
      "tear": 8082,
      "hubs": 8083,
      "nokay": 8084,
      "ativity": 8085,
      "toe": 8086,
      "iffy": 8087,
      "beforehand": 8088,
      "biased": 8089,
      "annual": 8090,
      "cheerful": 8091,
      "quisite": 8092,
      "rican": 8093,
      "bothering": 8094,
      "practices": 8095,
      "ivalent": 8096,
      "magazine": 8097,
      "ota": 8098,
      "horrid": 8099,
      "substanti": 8100,
      "instructions": 8101,
      "bleh": 8102,
      "ncame": 8103,
      "uck": 8104,
      "acou": 8105,
      "drinker": 8106,
      "oreo": 8107,
      "31": 8108,
      "thankful": 8109,
      "physical": 8110,
      "soaking": 8111,
      "elbow": 8112,
      "quires": 8113,
      "crammed": 8114,
      "speedy": 8115,
      "styrofoam": 8116,
      "mul": 8117,
      "vot": 8118,
      "illo": 8119,
      "honesty": 8120,
      "dict": 8121,
      "icking": 8122,
      "puck": 8123,
      "laying": 8124,
      "succul": 8125,
      "pome": 8126,
      "inspect": 8127,
      "progress": 8128,
      "breakfasts": 8129,
      "cycle": 8130,
      "bik": 8131,
      "hamburgers": 8132,
      "gates": 8133,
      "cos": 8134,
      "towers": 8135,
      "lining": 8136,
      "automatic": 8137,
      "umm": 8138,
      "dium": 8139,
      "alarm": 8140,
      "joining": 8141,
      "shabu": 8142,
      "sugary": 8143,
      "thanked": 8144,
      "effective": 8145,
      "stingy": 8146,
      "nuggets": 8147,
      "courtyard": 8148,
      "!\\\"\\": 8149,
      "sri": 8150,
      "exclusive": 8151,
      "quicker": 8152,
      "reminiscent": 8153,
      "anth": 8154,
      "assho": 8155,
      "upbeat": 8156,
      "110": 8157,
      "wander": 8158,
      "croissants": 8159,
      "peaks": 8160,
      "3am": 8161,
      "evenings": 8162,
      "calor": 8163,
      "ziki": 8164,
      "34": 8165,
      "ventil": 8166,
      "pairing": 8167,
      "argued": 8168,
      "pillow": 8169,
      "u00e7a": 8170,
      "marshmall": 8171,
      "600": 8172,
      "bim": 8173,
      "confit": 8174,
      "polenta": 8175,
      "trend": 8176,
      "mau": 8177,
      "bathtub": 8178,
      "techs": 8179,
      "scrub": 8180,
      "sticker": 8181,
      "conditioner": 8182,
      "racha": 8183,
      "hamachi": 8184,
      "lone": 8185,
      "unhelpful": 8186,
      "gray": 8187,
      "ikea": 8188,
      "phew": 8189,
      "metho": 8190,
      "lotion": 8191,
      "expense": 8192,
      "element": 8193,
      "dragged": 8194,
      "faith": 8195,
      "pricier": 8196,
      "episo": 8197,
      "differently": 8198,
      "shrimps": 8199,
      "emphas": 8200,
      "gonzola": 8201,
      "nlastly": 8202,
      "clubbing": 8203,
      "mistaken": 8204,
      "companions": 8205,
      "racks": 8206,
      "material": 8207,
      "mere": 8208,
      "finest": 8209,
      "seasons": 8210,
      "harris": 8211,
      "channels": 8212,
      "santa": 8213,
      "void": 8214,
      "complimented": 8215,
      "pinot": 8216,
      "kalbi": 8217,
      "exercise": 8218,
      "influ": 8219,
      "tape": 8220,
      "partially": 8221,
      "accompanying": 8222,
      "33": 8223,
      "dai": 8224,
      "injury": 8225,
      "unsure": 8226,
      "shiny": 8227,
      "offended": 8228,
      "carb": 8229,
      "dia": 8230,
      "tipas": 8231,
      "gorgonzola": 8232,
      "remained": 8233,
      "artific": 8234,
      "concrete": 8235,
      "ruth": 8236,
      "neveryone": 8237,
      "accordingly": 8238,
      "sophist": 8239,
      "indif": 8240,
      "elements": 8241,
      "slept": 8242,
      "blanket": 8243,
      "dissapointed": 8244,
      "wur": 8245,
      "anger": 8246,
      "frag": 8247,
      "touching": 8248,
      "struck": 8249,
      "unbelievably": 8250,
      "volunte": 8251,
      "nb": 8252,
      "shave": 8253,
      "iti": 8254,
      "kevin": 8255,
      "drool": 8256,
      "hometown": 8257,
      "waterfall": 8258,
      "80s": 8259,
      "toddler": 8260,
      "tis": 8261,
      "hub": 8262,
      "tune": 8263,
      "guinness": 8264,
      "pubs": 8265,
      "sanitary": 8266,
      "drizzled": 8267,
      "requires": 8268,
      "versus": 8269,
      "canal": 8270,
      "asses": 8271,
      "airways": 8272,
      "digress": 8273,
      "cact": 8274,
      "kris": 8275,
      "demo": 8276,
      "maze": 8277,
      "condo": 8278,
      "hier": 8279,
      "gue": 8280,
      "manh": 8281,
      "istas": 8282,
      "panera": 8283,
      "countless": 8284,
      "tember": 8285,
      "utterly": 8286,
      "staples": 8287,
      "ashamed": 8288,
      "markets": 8289,
      "glam": 8290,
      "weekdays": 8291,
      "oooooooo": 8292,
      "dozens": 8293,
      "pomegran": 8294,
      "nplus": 8295,
      "samo": 8296,
      "welling": 8297,
      "fixture": 8298,
      "polished": 8299,
      "renovation": 8300,
      "journey": 8301,
      "novelty": 8302,
      "stics": 8303,
      "melts": 8304,
      "refilling": 8305,
      "devoured": 8306,
      "pointing": 8307,
      "monster": 8308,
      "walgreens": 8309,
      "moderately": 8310,
      "skimp": 8311,
      "cigarettes": 8312,
      "residents": 8313,
      "representative": 8314,
      "wireless": 8315,
      "september": 8316,
      "performed": 8317,
      "byob": 8318,
      "speakers": 8319,
      "hearts": 8320,
      "attempting": 8321,
      "baker": 8322,
      "guns": 8323,
      "mim": 8324,
      "nhonestly": 8325,
      "antipas": 8326,
      "solo": 8327,
      "condu": 8328,
      "yours": 8329,
      "provol": 8330,
      "cubes": 8331,
      "provolone": 8332,
      "arin": 8333,
      "draf": 8334,
      "infl": 8335,
      "tied": 8336,
      "exposed": 8337,
      "india": 8338,
      "barrel": 8339,
      "angus": 8340,
      "bride": 8341,
      "roberto": 8342,
      "senior": 8343,
      "echo": 8344,
      "psy": 8345,
      "treatments": 8346,
      "magical": 8347,
      "21st": 8348,
      "displays": 8349,
      "piss": 8350,
      "cop": 8351,
      "thinly": 8352,
      "yyyy": 8353,
      "brake": 8354,
      "idiots": 8355,
      "nboth": 8356,
      "ws": 8357,
      "merely": 8358,
      "coated": 8359,
      "usa": 8360,
      "ounced": 8361,
      "homey": 8362,
      "integr": 8363,
      "circum": 8364,
      "stools": 8365,
      "browsing": 8366,
      "pepsi": 8367,
      "eff": 8368,
      "hats": 8369,
      "uber": 8370,
      "cere": 8371,
      "splitting": 8372,
      "sprinkles": 8373,
      "manhatt": 8374,
      "nhow": 8375,
      "tastier": 8376,
      "newest": 8377,
      "tears": 8378,
      "resorts": 8379,
      "cactus": 8380,
      "cvs": 8381,
      "tick": 8382,
      "forest": 8383,
      "curly": 8384,
      "benches": 8385,
      "delivering": 8386,
      "somme": 8387,
      "lisa": 8388,
      "andy": 8389,
      "llll": 8390,
      "flakes": 8391,
      "fris": 8392,
      "scare": 8393,
      "lind": 8394,
      "premis": 8395,
      "counted": 8396,
      "popping": 8397,
      "cockroach": 8398,
      "endroit": 8399,
      "overlook": 8400,
      "artwork": 8401,
      "drops": 8402,
      "mills": 8403,
      "logist": 8404,
      "wth": 8405,
      "storage": 8406,
      "crabs": 8407,
      "rounded": 8408,
      "canceled": 8409,
      "sore": 8410,
      "gimm": 8411,
      "strictly": 8412,
      "ax": 8413,
      "eness": 8414,
      "handing": 8415,
      "rabbit": 8416,
      "eric": 8417,
      "alive": 8418,
      "updating": 8419,
      "\\\")": 8420,
      "duh": 8421,
      "dumped": 8422,
      "jumping": 8423,
      "activity": 8424,
      "grumpy": 8425,
      "wok": 8426,
      "shest": 8427,
      "okra": 8428,
      "visions": 8429,
      "snag": 8430,
      "fallen": 8431,
      "depth": 8432,
      "baklava": 8433,
      "storm": 8434,
      "hazard": 8435,
      "compon": 8436,
      "uti": 8437,
      "dedu": 8438,
      "restric": 8439,
      "airlines": 8440,
      "frames": 8441,
      "ngot": 8442,
      "wie": 8443,
      "pled": 8444,
      "visual": 8445,
      "sites": 8446,
      "strato": 8447,
      "equivalent": 8448,
      "reng": 8449,
      "gallery": 8450,
      "champaign": 8451,
      "tando": 8452,
      "memorial": 8453,
      "fryer": 8454,
      "truffles": 8455,
      "unappetizing": 8456,
      "apped": 8457,
      "salami": 8458,
      "mption": 8459,
      "distracted": 8460,
      "worries": 8461,
      "newsp": 8462,
      "fettucc": 8463,
      "88": 8464,
      "haus": 8465,
      "lotus": 8466,
      "primary": 8467,
      "ampi": 8468,
      "aussi": 8469,
      "79": 8470,
      "incl": 8471,
      "stroll": 8472,
      "esque": 8473,
      "guards": 8474,
      "filed": 8475,
      "escargot": 8476,
      "whites": 8477,
      "freshest": 8478,
      "tured": 8479,
      "hungover": 8480,
      "observ": 8481,
      "weights": 8482,
      "image": 8483,
      "gia": 8484,
      "bacchan": 8485,
      "registers": 8486,
      "succulent": 8487,
      "asco": 8488,
      "unlv": 8489,
      "doughnuts": 8490,
      "challenging": 8491,
      "oops": 8492,
      "tremend": 8493,
      "addressed": 8494,
      "juli": 8495,
      "fred": 8496,
      "caution": 8497,
      "mario": 8498,
      "cobb": 8499,
      "izen": 8500,
      "angle": 8501,
      "slush": 8502,
      "remains": 8503,
      "nobu": 8504,
      "failure": 8505,
      "addicted": 8506,
      "virgin": 8507,
      "porto": 8508,
      "assion": 8509,
      "spinning": 8510,
      "borderline": 8511,
      "uninspired": 8512,
      "trout": 8513,
      "friendliness": 8514,
      "saut": 8515,
      "electronic": 8516,
      "chimichanga": 8517,
      "ancho": 8518,
      "arranged": 8519,
      "moni": 8520,
      "cari": 8521,
      "horror": 8522,
      "appropriately": 8523,
      "searched": 8524,
      "innov": 8525,
      "asse": 8526,
      "serviced": 8527,
      "fillings": 8528,
      "disrespectful": 8529,
      "glu": 8530,
      "inner": 8531,
      "atl": 8532,
      "aly": 8533,
      "hefty": 8534,
      "pyram": 8535,
      "craps": 8536,
      "grandmother": 8537,
      "tests": 8538,
      "recie": 8539,
      "suis": 8540,
      "ummm": 8541,
      "mayonnaise": 8542,
      "simpl": 8543,
      "source": 8544,
      "bacchanal": 8545,
      "united": 8546,
      "sert": 8547,
      "biggie": 8548,
      "conscious": 8549,
      "taro": 8550,
      "(?)": 8551,
      "kon": 8552,
      "bec": 8553,
      "liar": 8554,
      "overs": 8555,
      "rancher": 8556,
      "humble": 8557,
      "lemongrass": 8558,
      "speaks": 8559,
      "exhibits": 8560,
      "ripe": 8561,
      "heater": 8562,
      "sheer": 8563,
      "manhattan": 8564,
      "1am": 8565,
      "indoors": 8566,
      "flavoring": 8567,
      "explains": 8568,
      "mmmmm": 8569,
      "thrift": 8570,
      "brussel": 8571,
      "canadian": 8572,
      "9am": 8573,
      "vive": 8574,
      "seur": 8575,
      "lowest": 8576,
      "basement": 8577,
      "surroundings": 8578,
      "vehicles": 8579,
      "assorted": 8580,
      "pron": 8581,
      "connois": 8582,
      "computers": 8583,
      "stratosphere": 8584,
      "mates": 8585,
      "offensive": 8586,
      "???\\": 8587,
      "packs": 8588,
      "beatles": 8589,
      "exceeded": 8590,
      "preface": 8591,
      "marsala": 8592,
      "slimy": 8593,
      "rotten": 8594,
      "dente": 8595,
      "queens": 8596,
      "float": 8597,
      "pomegranate": 8598,
      "gap": 8599,
      "busier": 8600,
      "grave": 8601,
      "walkway": 8602,
      "dres": 8603,
      "daddy": 8604,
      "relish": 8605,
      "outfit": 8606,
      "roommate": 8607,
      "wherever": 8608,
      "fajita": 8609,
      "characters": 8610,
      "jon": 8611,
      "cereal": 8612,
      "curries": 8613,
      "satisfactory": 8614,
      "posting": 8615,
      "ringing": 8616,
      "title": 8617,
      "nnothing": 8618,
      "argum": 8619,
      "kicker": 8620,
      "hashbrowns": 8621,
      "pitchers": 8622,
      "og": 8623,
      "ander": 8624,
      "nah": 8625,
      "brook": 8626,
      "defi": 8627,
      "viewing": 8628,
      "supreme": 8629,
      "flir": 8630,
      "coin": 8631,
      "copper": 8632,
      "mondays": 8633,
      "surface": 8634,
      "dial": 8635,
      "mixing": 8636,
      "dil": 8637,
      "forgetting": 8638,
      "cies": 8639,
      "creativity": 8640,
      "scattered": 8641,
      "fabric": 8642,
      "robert": 8643,
      "romaine": 8644,
      "ental": 8645,
      "nthese": 8646,
      "brace": 8647,
      "ndespite": 8648,
      "papaya": 8649,
      "2009": 8650,
      "sens": 8651,
      "chaos": 8652,
      "mildly": 8653,
      "remotely": 8654,
      "lk": 8655,
      "mv": 8656,
      "scor": 8657,
      "chewing": 8658,
      "confront": 8659,
      "u00e8me": 8660,
      "scoops": 8661,
      "anticipated": 8662,
      "yer": 8663,
      "tipping": 8664,
      "nephew": 8665,
      "utch": 8666,
      "afterward": 8667,
      "tryst": 8668,
      "renting": 8669,
      "rango": 8670,
      "nutr": 8671,
      "farmers": 8672,
      "rooftop": 8673,
      "izes": 8674,
      "realizing": 8675,
      "chilly": 8676,
      "architecture": 8677,
      "cp": 8678,
      "sufficient": 8679,
      "sweetened": 8680,
      "northern": 8681,
      "cycl": 8682,
      "lands": 8683,
      "desperately": 8684,
      "jasmine": 8685,
      "sche": 8686,
      "coal": 8687,
      "dram": 8688,
      "baristas": 8689,
      "smokers": 8690,
      "bbie": 8691,
      "caliber": 8692,
      "sparkling": 8693,
      "tubs": 8694,
      "moderate": 8695,
      "bamboo": 8696,
      "elderly": 8697,
      "nished": 8698,
      "toffee": 8699,
      "highway": 8700,
      "stylists": 8701,
      "clearance": 8702,
      "bumped": 8703,
      "teacher": 8704,
      "grimaldi": 8705,
      "quail": 8706,
      "burro": 8707,
      "finds": 8708,
      "colleagues": 8709,
      "radish": 8710,
      "scottish": 8711,
      "acrobatics": 8712,
      "vig": 8713,
      "anity": 8714,
      "math": 8715,
      "sorta": 8716,
      "maxim": 8717,
      "paneer": 8718,
      "inconvenient": 8719,
      "stair": 8720,
      "coating": 8721,
      "quel": 8722,
      "tasteful": 8723,
      "pains": 8724,
      "designs": 8725,
      "mandarin": 8726,
      "consumed": 8727,
      "overnight": 8728,
      "bbly": 8729,
      "boxed": 8730,
      "throat": 8731,
      "determined": 8732,
      "craig": 8733,
      "pole": 8734,
      "mia": 8735,
      "phy": 8736,
      "voicemail": 8737,
      "quirky": 8738,
      "44": 8739,
      "\\\"?": 8740,
      "overcharged": 8741,
      "personnel": 8742,
      "survive": 8743,
      "stressed": 8744,
      "artificial": 8745,
      "u00e9ed": 8746,
      "phil": 8747,
      "squir": 8748,
      "princi": 8749,
      "pairs": 8750,
      "tread": 8751,
      "quad": 8752,
      "locate": 8753,
      "breadsticks": 8754,
      "partial": 8755,
      "transferred": 8756,
      "appalled": 8757,
      "kyo": 8758,
      "cola": 8759,
      "salv": 8760,
      "fresher": 8761,
      "candles": 8762,
      "teenagers": 8763,
      "officially": 8764,
      "tandoori": 8765,
      "nv": 8766,
      "outing": 8767,
      "misleading": 8768,
      "popul": 8769,
      "apologizing": 8770,
      "latin": 8771,
      "sriracha": 8772,
      "nell": 8773,
      "scalli": 8774,
      "accommod": 8775,
      "engage": 8776,
      "belgian": 8777,
      "nduring": 8778,
      "alber": 8779,
      "icans": 8780,
      "responsive": 8781,
      "scheduling": 8782,
      "embarrassing": 8783,
      "mega": 8784,
      "bees": 8785,
      "mud": 8786,
      "hotdog": 8787,
      "u00e9al": 8788,
      "motiv": 8789,
      "drip": 8790,
      "kfc": 8791,
      "tact": 8792,
      "coaster": 8793,
      "carnival": 8794,
      "tiness": 8795,
      "hopping": 8796,
      "natives": 8797,
      "macarons": 8798,
      "episode": 8799,
      "nay": 8800,
      "swall": 8801,
      "tso": 8802,
      "streng": 8803,
      "lion": 8804,
      "buyer": 8805,
      "frost": 8806,
      "pyramid": 8807,
      "renew": 8808,
      "replacing": 8809,
      "aro": 8810,
      "ook": 8811,
      "plated": 8812,
      "proved": 8813,
      "lum": 8814,
      "shaking": 8815,
      "compete": 8816,
      "wha": 8817,
      "concent": 8818,
      "skins": 8819,
      "jected": 8820,
      "operated": 8821,
      "graph": 8822,
      "bearable": 8823,
      "assure": 8824,
      "minded": 8825,
      "treating": 8826,
      "sounding": 8827,
      "souffle": 8828,
      "nbecause": 8829,
      "nlocation": 8830,
      "wn": 8831,
      "perspective": 8832,
      "impatient": 8833,
      "hotter": 8834,
      "walnuts": 8835,
      "valentine": 8836,
      "belief": 8837,
      "abili": 8838,
      "peter": 8839,
      "febr": 8840,
      "destroy": 8841,
      "inspiring": 8842,
      "british": 8843,
      "february": 8844,
      "sorely": 8845,
      "rival": 8846,
      "gosh": 8847,
      "bodies": 8848,
      "flair": 8849,
      "commit": 8850,
      "guessed": 8851,
      "attendants": 8852,
      "devil": 8853,
      "installation": 8854,
      "artisan": 8855,
      "aver": 8856,
      "kn": 8857,
      "friendlier": 8858,
      "decoration": 8859,
      "russian": 8860,
      "plumbing": 8861,
      "abundance": 8862,
      "resturant": 8863,
      ".).": 8864,
      "punk": 8865,
      "miller": 8866,
      "nambiance": 8867,
      "erie": 8868,
      "overhead": 8869,
      "casa": 8870,
      "suspic": 8871,
      "fax": 8872,
      "rowdy": 8873,
      "fireplace": 8874,
      "37": 8875,
      "ec": 8876,
      "sic": 8877,
      "clau": 8878,
      "aire": 8879,
      "landed": 8880,
      "circumst": 8881,
      "wheels": 8882,
      "label": 8883,
      "kiosk": 8884,
      "lick": 8885,
      "mam": 8886,
      "lox": 8887,
      "apia": 8888,
      "experiencing": 8889,
      "cashew": 8890,
      "bao": 8891,
      "heating": 8892,
      "airports": 8893,
      "portioned": 8894,
      "empanadas": 8895,
      "mice": 8896,
      "tiger": 8897,
      "hygi": 8898,
      "succeed": 8899,
      "tzat": 8900,
      "gratin": 8901,
      "escorted": 8902,
      "snotty": 8903,
      "ua": 8904,
      "lected": 8905,
      "whil": 8906,
      "craz": 8907,
      "alike": 8908,
      "sadd": 8909,
      "neare": 8910,
      "tunes": 8911,
      "farmer": 8912,
      "picks": 8913,
      "resident": 8914,
      "irritating": 8915,
      "serendip": 8916,
      "nget": 8917,
      "ferent": 8918,
      "disagree": 8919,
      "springs": 8920,
      "secure": 8921,
      "unremarkable": 8922,
      "joh": 8923,
      "rescue": 8924,
      "gesture": 8925,
      "applebee": 8926,
      "hipsters": 8927,
      "dreams": 8928,
      "jones": 8929,
      "meter": 8930,
      "hay": 8931,
      "locking": 8932,
      "cush": 8933,
      "traveled": 8934,
      "cobbler": 8935,
      "vraiment": 8936,
      "whilst": 8937,
      "task": 8938,
      "outta": 8939,
      "units": 8940,
      "medication": 8941,
      "dug": 8942,
      "lashes": 8943,
      "almonds": 8944,
      "lite": 8945,
      "ashi": 8946,
      "accompl": 8947,
      "ryan": 8948,
      "u00e2": 8949,
      "volcano": 8950,
      "toro": 8951,
      "dom": 8952,
      "carving": 8953,
      "soccer": 8954,
      "sommelier": 8955,
      "bout": 8956,
      "ng": 8957,
      "urgent": 8958,
      "phob": 8959,
      "prints": 8960,
      "hound": 8961,
      "shep": 8962,
      "okes": 8963,
      "malls": 8964,
      "insulting": 8965,
      "science": 8966,
      "zom": 8967,
      "league": 8968,
      "facts": 8969,
      "temps": 8970,
      "capable": 8971,
      "neglected": 8972,
      "crystal": 8973,
      "loyalty": 8974,
      "plantains": 8975,
      "77": 8976,
      "lychee": 8977,
      "marath": 8978,
      "nord": 8979,
      "stylish": 8980,
      "spoons": 8981,
      "cantina": 8982,
      "niece": 8983,
      "arrangement": 8984,
      "athetic": 8985,
      "hertz": 8986,
      "oakland": 8987,
      "verizon": 8988,
      "overpowered": 8989,
      "danny": 8990,
      "nurses": 8991,
      "dunno": 8992,
      "8am": 8993,
      "carries": 8994,
      "pays": 8995,
      "consideration": 8996,
      "drawback": 8997,
      "critical": 8998,
      "resolve": 8999,
      "inappropriate": 9000,
      "isty": 9001,
      "upsell": 9002,
      "speaker": 9003,
      "smoothly": 9004,
      "sisters": 9005,
      "scenery": 9006,
      "leaking": 9007,
      "ching": 9008,
      "verify": 9009,
      "mies": 9010,
      "avoiding": 9011,
      "folk": 9012,
      "nhaving": 9013,
      "notified": 9014,
      "trum": 9015,
      "boiling": 9016,
      "mains": 9017,
      "busser": 9018,
      "savings": 9019,
      "bolo": 9020,
      "linguine": 9021,
      "trusted": 9022,
      "fluke": 9023,
      "expressed": 9024,
      "suffer": 9025,
      "medicine": 9026,
      "hazelnut": 9027,
      "sard": 9028,
      "tori": 9029,
      "angers": 9030,
      "shopped": 9031,
      "tails": 9032,
      "vom": 9033,
      "formal": 9034,
      "froyo": 9035,
      "baggage": 9036,
      "posters": 9037,
      "childhood": 9038,
      "noticeable": 9039,
      "sinks": 9040,
      "ados": 9041,
      "ulate": 9042,
      "jama": 9043,
      "reduction": 9044,
      "domestic": 9045,
      "indifferent": 9046,
      "tus": 9047,
      "whir": 9048,
      "trainer": 9049,
      "performing": 9050,
      "relief": 9051,
      "rrrr": 9052,
      "neu": 9053,
      "quino": 9054,
      "fortunate": 9055,
      "produced": 9056,
      "melting": 9057,
      "sophisticated": 9058,
      "!.": 9059,
      "dvd": 9060,
      "whop": 9061,
      "useful": 9062,
      "malt": 9063,
      "proceeds": 9064,
      "quer": 9065,
      "clever": 9066,
      "seasonings": 9067,
      "bella": 9068,
      "meetings": 9069,
      "official": 9070,
      "technically": 9071,
      "downfall": 9072,
      "cuter": 9073,
      "butternut": 9074,
      "electronics": 9075,
      "praise": 9076,
      "cannoli": 9077,
      "calorie": 9078,
      "links": 9079,
      "lips": 9080,
      "delighted": 9081,
      "shark": 9082,
      "nbeing": 9083,
      "carbs": 9084,
      "condiment": 9085,
      "renovations": 9086,
      "featuring": 9087,
      "blos": 9088,
      "stinks": 9089,
      "haun": 9090,
      "ays": 9091,
      "shipped": 9092,
      "subur": 9093,
      "waist": 9094,
      "baba": 9095,
      "firefly": 9096,
      "frequented": 9097,
      "device": 9098,
      "fum": 9099,
      "asia": 9100,
      "iration": 9101,
      "amate": 9102,
      "vomit": 9103,
      "humid": 9104,
      "effects": 9105,
      "89": 9106,
      "afore": 9107,
      "sonic": 9108,
      "gnese": 9109,
      "wedges": 9110,
      "harbor": 9111,
      "beaten": 9112,
      "recognized": 9113,
      "serendipity": 9114,
      "gaz": 9115,
      "iar": 9116,
      "outer": 9117,
      "apt": 9118,
      "grano": 9119,
      "wishing": 9120,
      "authenticity": 9121,
      "strength": 9122,
      "lag": 9123,
      "forks": 9124,
      "tily": 9125,
      "strate": 9126,
      "communicate": 9127,
      "dusty": 9128,
      "ik": 9129,
      "istle": 9130,
      "closure": 9131,
      "mari": 9132,
      "brownies": 9133,
      "snobby": 9134,
      "groomer": 9135,
      "demanded": 9136,
      "ceremony": 9137,
      "hong": 9138,
      "pars": 9139,
      "misters": 9140,
      "queue": 9141,
      "panel": 9142,
      "poses": 9143,
      "blues": 9144,
      "mandatory": 9145,
      "powdered": 9146,
      "ventilation": 9147,
      "quinoa": 9148,
      "friendliest": 9149,
      "dissatisfied": 9150,
      "u00eatre": 9151,
      "kicking": 9152,
      "asis": 9153,
      "accus": 9154,
      "baskets": 9155,
      "texting": 9156,
      "lawn": 9157,
      "climbing": 9158,
      "compensate": 9159,
      "goal": 9160,
      "disco": 9161,
      "chipped": 9162,
      "catered": 9163,
      "pless": 9164,
      "brad": 9165,
      "considerate": 9166,
      "bumping": 9167,
      "defiantly": 9168,
      "comend": 9169,
      "textures": 9170,
      "peeps": 9171,
      "(\\\"": 9172,
      "reverse": 9173,
      "outfits": 9174,
      "maids": 9175,
      "laser": 9176,
      "engaging": 9177,
      "cadia": 9178,
      "connoisseur": 9179,
      "~$": 9180,
      "reve": 9181,
      "doc": 9182,
      "sidewalk": 9183,
      "aspects": 9184,
      "registration": 9185,
      "tzatziki": 9186,
      "bolognese": 9187,
      "granola": 9188,
      "bilt": 9189,
      "glo": 9190,
      "raz": 9191,
      "chut": 9192,
      "sipping": 9193,
      "flood": 9194,
      "halo": 9195,
      "boom": 9196,
      "tuc": 9197,
      "smoker": 9198,
      "technology": 9199,
      "tostada": 9200,
      "69": 9201,
      "rin": 9202,
      "costu": 9203,
      "coordin": 9204,
      "essions": 9205,
      "!!)": 9206,
      "bliss": 9207,
      "monta": 9208,
      "profile": 9209,
      "grossed": 9210,
      "connecting": 9211,
      "costume": 9212,
      "inquire": 9213,
      "payed": 9214,
      "musical": 9215,
      "laden": 9216,
      "kiss": 9217,
      "unimpressive": 9218,
      "ounces": 9219,
      "hoag": 9220,
      "folded": 9221,
      "snooty": 9222,
      "gabi": 9223,
      "elite": 9224,
      "posh": 9225,
      "thora": 9226,
      "crawl": 9227,
      "parks": 9228,
      "marketplace": 9229,
      "forgive": 9230,
      "greater": 9231,
      "stepping": 9232,
      "shawarma": 9233,
      "handic": 9234,
      "descriptions": 9235,
      "memorabili": 9236,
      "educated": 9237,
      "begins": 9238,
      "mme": 9239,
      "nbefore": 9240,
      "reference": 9241,
      "kebab": 9242,
      "ferences": 9243,
      "modif": 9244,
      "canada": 9245,
      "seeking": 9246,
      "plethora": 9247,
      "ggie": 9248,
      "aloha": 9249,
      "johns": 9250,
      "incorrectly": 9251,
      "dew": 9252,
      "mental": 9253,
      "mccar": 9254,
      "caters": 9255,
      "candied": 9256,
      "severe": 9257,
      "longest": 9258,
      "crafted": 9259,
      "argument": 9260,
      "latt": 9261,
      "sind": 9262,
      "chant": 9263,
      "noch": 9264,
      "cork": 9265,
      "classics": 9266,
      "tournam": 9267,
      "introduce": 9268,
      "barbeque": 9269,
      "poop": 9270,
      "tribute": 9271,
      "nhighly": 9272,
      "convey": 9273,
      "montr": 9274,
      "iana": 9275,
      "tilapia": 9276,
      "versions": 9277,
      "smashburger": 9278,
      "expanded": 9279,
      "fettuccine": 9280,
      "memorabilia": 9281,
      "4am": 9282,
      "kay": 9283,
      "mound": 9284,
      "altogether": 9285,
      "chape": 9286,
      "baking": 9287,
      "cesar": 9288,
      "touches": 9289,
      "therapy": 9290,
      "peaceful": 9291,
      "pb": 9292,
      "hab": 9293,
      "dete": 9294,
      "render": 9295,
      "deliciously": 9296,
      "ramsey": 9297,
      "professionals": 9298,
      "drafts": 9299,
      "biltmore": 9300,
      "oli": 9301,
      "pim": 9302,
      "ying": 9303,
      "beig": 9304,
      "pray": 9305,
      "istent": 9306,
      "physically": 9307,
      "liberty": 9308,
      "caffeine": 9309,
      "pate": 9310,
      "arcadia": 9311,
      "discussed": 9312,
      "horrific": 9313,
      "intrigued": 9314,
      "orn": 9315,
      "verdict": 9316,
      "cane": 9317,
      "ulu": 9318,
      "blaring": 9319,
      "awkwardly": 9320,
      "crossed": 9321,
      "audi": 9322,
      "tural": 9323,
      "!!!!!!!": 9324,
      "swanky": 9325,
      "pockets": 9326,
      "brun": 9327,
      "coolest": 9328,
      "worthwhile": 9329,
      "media": 9330,
[...]
